<pad>	0
<s>	0
</s>	0
<unk>	0
▁t	-0
▁i	-1
he	-2
▁a	-3
▁w	-4
ou	-5
▁to	-6
▁s	-7
re	-8
in	-9
▁m	-10
▁the	-11
ha	-12
▁y	-13
▁d	-14
▁b	-15
on	-16
▁you	-17
▁c	-18
ve	-19
▁f	-20
▁l	-21
ing	-22
or	-23
an	-24
▁p	-25
ll	-26
te	-27
is	-28
▁tom	-29
▁g	-30
as	-31
▁is	-32
ar	-33
en	-34
▁he	-35
▁n	-36
▁ha	-37
▁h	-38
▁o	-39
ed	-40
hat	-41
▁th	-42
me	-43
ow	-44
▁in	-45
le	-46
ay	-47
ke	-48
▁be	-49
▁it	-50
▁do	-51
it	-52
er	-53
ot	-54
▁of	-55
▁e	-56
▁"	-57
oo	-58
at	-59
▁an	-60
st	-61
ld	-62
▁that	-63
▁we	-64
id	-65
▁was	-66
▁me	-67
▁my	-68
es	-69
ver	-70
et	-71
ch	-72
."	-73
▁st	-74
▁li	-75
▁this	-76
▁on	-77
gh	-78
▁u	-79
ic	-80
▁have	-81
▁for	-82
▁r	-83
ome	-84
ter	-85
▁re	-86
se	-87
▁are	-88
▁don	-89
ght	-90
ad	-91
▁go	-92
om	-93
al	-94
▁your	-95
▁can	-96
her	-97
ould	-98
▁k	-99
out	-100
▁ne	-101
▁at	-102
▁what	-103
ri	-104
ly	-105
▁like	-106
ent	-107
all	-108
▁bu	-109
▁she	-110
ac	-111
ain	-112
ill	-113
ith	-114
very	-115
▁with	-116
ir	-117
▁did	-118
▁wh	-119
ook	-120
th	-121
ant	-122
ion	-123
▁not	-124
ake	-125
▁there	-126
▁and	-127
one	-128
▁se	-129
ary	-130
nd	-131
▁as	-132
▁sh	-133
▁su	-134
now	-135
▁whe	-136
▁j	-137
▁ti	-138
▁his	-139
ink	-140
▁tr	-141
ted	-142
im	-143
op	-144
▁ab	-145
ight	-146
ase	-147
ea	-148
▁so	-149
ood	-150
ce	-151
ore	-152
ur	-153
▁mary	-154
▁want	-155
▁know	-156
▁how	-157
▁wor	-158
ren	-159
day	-160
han	-161
▁any	-162
▁time	-163
▁some	-164
▁ple	-165
ust	-166
▁al	-167
if	-168
▁get	-169
▁has	-170
▁te	-171
▁up	-172
▁please	-173
▁sp	-174
▁pl	-175
▁think	-176
ost	-177
pp	-178
▁fr	-179
ge	-180
▁here	-181
ame	-182
ro	-183
▁all	-184
ry	-185
▁no	-186
un	-187
▁will	-188
end	-189
▁out	-190
ate	-191
il	-192
ast	-193
▁about	-194
▁very	-195
ind	-196
ong	-197
ive	-198
ut	-199
▁him	-200
▁good	-201
thing	-202
▁than	-203
▁co	-204
▁had	-205
▁let	-206
ally	-207
▁her	-208
▁ex	-209
▁day	-210
ear	-211
ss	-212
▁by	-213
▁see	-214
row	-215
▁from	-216
▁de	-217
▁fe	-218
ul	-219
ap	-220
▁look	-221
▁every	-222
am	-223
our	-224
ble	-225
king	-226
▁man	-227
▁going	-228
▁come	-229
ct	-230
red	-231
▁does	-232
▁too	-233
▁ch	-234
▁us	-235
qu	-236
▁would	-237
ree	-238
and	-239
▁sa	-240
▁were	-241
▁mu	-242
▁when	-243
▁home	-244
ice	-245
▁car	-246
?"	-247
▁could	-248
ation	-249
other	-250
▁didn	-251
▁cl	-252
▁take	-253
ought	-254
fe	-255
ish	-256
▁who	-257
ack	-258
▁wa	-259
ather	-260
▁one	-261
▁en	-262
dy	-263
ep	-264
▁should	-265
way	-266
▁been	-267
▁book	-268
▁where	-269
au	-270
ning	-271
▁but	-272
rench	-273
▁ag	-274
▁why	-275
▁french	-276
ool	-277
▁af	-278
▁now	-279
ie	-280
▁eat	-281
lf	-282
ine	-283
▁got	-284
▁they	-285
▁isn	-286
▁off	-287
▁com	-288
orrow	-289
art	-290
▁work	-291
▁today	-292
nt	-293
▁stu	-294
ck	-295
▁qu	-296
ound	-297
▁year	-298
oom	-299
▁lo	-300
alk	-301
ers	-302
▁ar	-303
ol	-304
ass	-305
▁much	-306
▁dr	-307
▁v	-308
▁if	-309
ort	-310
▁sch	-311
▁bus	-312
▁just	-313
▁lot	-314
▁school	-315
▁need	-316
▁read	-317
▁tomorrow	-318
ild	-319
▁tell	-320
▁more	-321
▁say	-322
▁or	-323
▁tw	-324
▁really	-325
ist	-326
▁new	-327
▁con	-328
▁le	-329
ig	-330
riend	-331
▁pe	-332
▁hel	-333
▁play	-334
ous	-335
▁br	-336
▁last	-337
mb	-338
▁help	-339
are	-340
mp	-341
▁make	-342
ard	-343
oney	-344
▁spea	-345
▁pre	-346
▁long	-347
ouse	-348
ten	-349
ess	-350
▁rain	-351
urn	-352
▁back	-353
▁money	-354
▁bo	-355
▁bet	-356
el	-357
▁old	-358
▁three	-359
▁happ	-360
▁room	-361
▁won	-362
▁many	-363
ick	-364
▁ac	-365
hed	-366
os	-367
▁house	-368
▁sm	-369
▁live	-370
▁never	-371
▁ke	-372
▁right	-373
ag	-374
▁pro	-375
ure	-376
▁went	-377
to	-378
▁may	-379
ople	-380
ra	-381
▁people	-382
pen	-383
ts	-384
▁call	-385
oston	-386
▁boston	-387
▁speak	-388
ide	-389
▁still	-390
▁doesn	-391
ther	-392
▁buy	-393
self	-394
▁father	-395
▁two	-396
bo	-397
▁child	-398
atch	-399
ried	-400
ite	-401
▁over	-402
▁give	-403
▁our	-404
▁ask	-405
tle	-406
xt	-407
ving	-408
▁sw	-409
▁mo	-410
ue	-411
▁pr	-412
▁after	-413
▁stay	-414
▁again	-415
▁friend	-416
▁ad	-417
▁jo	-418
▁mad	-419
▁said	-420
ek	-421
▁night	-422
der	-423
▁am	-424
fore	-425
▁un	-426
▁har	-427
▁lea	-428
▁wait	-429
own	-430
▁yes	-431
ft	-432
▁anything	-433
▁love	-434
terday	-435
▁before	-436
▁ta	-437
▁turn	-438
▁ear	-439
▁next	-440
▁something	-441
▁better	-442
nder	-443
ty	-444
▁bec	-445
▁bl	-446
ways	-447
▁week	-448
▁always	-449
▁yesterday	-450
ave	-451
body	-452
▁fl	-453
leep	-454
▁thought	-455
▁plan	-456
▁into	-457
age	-458
▁came	-459
▁put	-460
▁way	-461
▁down	-462
▁thing	-463
▁bre	-464
▁hand	-465
ough	-466
▁years	-467
▁under	-468
▁late	-469
▁po	-470
▁made	-471
▁comp	-472
▁feel	-473
▁train	-474
▁open	-475
▁cold	-476
▁well	-477
us	-478
ace	-479
▁lit	-480
▁left	-481
▁soon	-482
ile	-483
ting	-484
▁little	-485
▁mor	-486
▁dog	-487
ven	-488
ount	-489
▁other	-490
▁morning	-491
▁mon	-492
▁drink	-493
▁hard	-494
▁leave	-495
whe	-496
▁mother	-497
ang	-498
ak	-499
ose	-500
▁name	-501
ict	-502
ved	-503
apan	-504
▁exp	-505
▁japan	-506
▁gr	-507
▁che	-508
cid	-509
▁stop	-510
ute	-511
▁fa	-512
▁""	-513
irst	-514
▁talk	-515
▁app	-516
▁ten	-517
mber	-518
▁only	-519
▁di	-520
hing	-521
ress	-522
""	-523
▁walk	-524
ng	-525
▁door	-526
▁must	-527
▁fin	-528
mer	-529
get	-530
ach	-531
ab	-532
ich	-533
▁eng	-534
ark	-535
▁part	-536
▁bought	-537
tom	-538
▁pa	-539
ity	-540
▁meet	-541
▁chan	-542
est	-543
▁try	-544
ia	-545
iss	-546
▁bel	-547
▁bot	-548
▁watch	-549
hone	-550
▁thank	-551
ies	-552
▁use	-553
▁care	-554
▁children	-555
▁first	-556
pt	-557
ise	-558
▁dif	-559
wn	-560
read	-561
▁inte	-562
▁happen	-563
▁doing	-564
▁study	-565
▁told	-566
▁away	-567
ffe	-568
▁gl	-569
iz	-570
igh	-571
▁sure	-572
▁ho	-573
ult	-574
▁sleep	-575
▁sc	-576
▁hur	-577
▁mar	-578
▁bad	-579
▁keep	-580
▁water	-581
um	-582
▁gir	-583
▁these	-584
▁show	-585
no	-586
▁ever	-587
▁dri	-588
▁swim	-589
ause	-590
lish	-591
▁stud	-592
fic	-593
▁wind	-594
▁station	-595
you	-596
▁1	-597
ans	-598
▁used	-599
▁dis	-600
ready	-601
▁already	-602
▁underst	-603
act	-604
▁wr	-605
▁eas	-606
ket	-607
▁gu	-608
orry	-609
▁looking	-610
."""	-611
ffee	-612
▁bed	-613
▁mat	-614
▁min	-615
▁english	-616
▁coffee	-617
▁brother	-618
ner	-619
▁days	-620
▁boy	-621
▁nothing	-622
ope	-623
▁kind	-624
ily	-625
▁imp	-626
▁pers	-627
estion	-628
▁teac	-629
▁gre	-630
anted	-631
▁question	-632
▁fi	-633
▁job	-634
▁understand	-635
cle	-636
▁saw	-637
ms	-638
▁tea	-639
▁yet	-640
▁young	-641
ock	-642
▁lost	-643
we	-644
▁often	-645
▁around	-646
▁couldn	-647
▁pass	-648
gry	-649
00	-650
▁fo	-651
▁wanted	-652
▁took	-653
▁teacher	-654
▁break	-655
ious	-656
ral	-657
▁cat	-658
▁aust	-659
▁sorry	-660
▁id	-661
▁belie	-662
hes	-663
ment	-664
▁fam	-665
▁smo	-666
▁hour	-667
▁minute	-668
▁austral	-669
ually	-670
▁snow	-671
▁cle	-672
▁hear	-673
▁wonder	-674
▁australia	-675
▁str	-676
▁wear	-677
▁friends	-678
ance	-679
▁person	-680
ated	-681
ese	-682
ory	-683
▁beg	-684
▁true	-685
▁sk	-686
▁run	-687
▁student	-688
ful	-689
ect	-690
able	-691
▁both	-692
▁la	-693
▁looks	-694
▁life	-695
▁intere	-696
▁busy	-697
▁sit	-698
▁proble	-699
▁able	-700
alking	-701
▁find	-702
▁happy	-703
▁things	-704
▁bro	-705
ited	-706
ream	-707
▁lear	-708
▁light	-709
les	-710
raid	-711
▁seen	-712
▁star	-713
▁books	-714
▁found	-715
▁afraid	-716
ince	-717
▁believe	-718
▁food	-719
▁letter	-720
▁because	-721
side	-722
▁pict	-723
▁picture	-724
▁heard	-725
aut	-726
▁gave	-727
▁bir	-728
ull	-729
▁arri	-730
▁ans	-731
ond	-732
▁res	-733
ath	-734
▁pol	-735
▁alone	-736
▁month	-737
wer	-738
▁big	-739
▁mov	-740
▁beaut	-741
▁class	-742
▁while	-743
ne	-744
▁asked	-745
gg	-746
cer	-747
▁sl	-748
ished	-749
▁them	-750
yes	-751
▁rest	-752
▁same	-753
▁cook	-754
▁wasn	-755
▁phone	-756
rents	-757
ork	-758
▁party	-759
inner	-760
▁once	-761
▁reme	-762
▁everything	-763
▁ma	-764
iver	-765
▁hot	-766
▁lun	-767
ister	-768
▁their	-769
▁girl	-770
▁likes	-771
ip	-772
og	-773
▁fun	-774
▁early	-775
vor	-776
▁count	-777
▁tired	-778
when	-779
▁best	-780
▁nice	-781
▁window	-782
▁bit	-783
▁mind	-784
▁parents	-785
ctor	-786
▁few	-787
ised	-788
aught	-789
ti	-790
cident	-791
▁diffic	-792
cl	-793
up	-794
ife	-795
▁married	-796
▁win	-797
▁remember	-798
ian	-799
▁tv	-800
▁fish	-801
▁sing	-802
▁lunch	-803
the	-804
▁aren	-805
▁dinner	-806
▁problem	-807
▁without	-808
▁everyone	-809
▁met	-810
▁near	-811
▁mist	-812
▁beautif	-813
▁ok	-814
▁sur	-815
▁enough	-816
▁rep	-817
▁matter	-818
▁sha	-819
▁idea	-820
▁beautiful	-821
▁pain	-822
▁wish	-823
▁wri	-824
▁sister	-825
▁2	-826
most	-827
▁rec	-828
▁haven	-829
augh	-830
▁anyone	-831
▁place	-832
▁getting	-833
▁easy	-834
ds	-835
ys	-836
▁war	-837
night	-838
▁high	-839
ence	-840
▁almost	-841
▁accident	-842
▁yourself	-843
ank	-844
orm	-845
sent	-846
▁pen	-847
▁vis	-848
▁such	-849
▁cha	-850
▁news	-851
▁park	-852
ible	-853
▁hun	-854
▁own	-855
▁answer	-856
▁learn	-857
ec	-858
▁doctor	-859
▁air	-860
▁ro	-861
▁weather	-862
▁someone	-863
ken	-864
▁sum	-865
▁done	-866
▁miss	-867
▁minutes	-868
▁difficult	-869
▁per	-870
▁which	-871
▁reading	-872
▁sec	-873
▁wrong	-874
▁usually	-875
ball	-876
▁far	-877
▁being	-878
▁write	-879
▁playing	-880
ign	-881
aper	-882
▁hope	-883
▁sho	-884
▁mus	-885
▁thir	-886
▁start	-887
▁waiting	-888
▁ap	-889
▁acc	-890
▁lis	-891
▁unt	-892
▁mistake	-893
osed	-894
work	-895
▁adv	-896
▁since	-897
▁another	-898
▁small	-899
▁those	-900
▁lar	-901
▁sick	-902
▁game	-903
▁talking	-904
▁finished	-905
orn	-906
ycle	-907
▁mom	-908
▁turned	-909
ped	-910
▁decid	-911
▁knows	-912
▁happened	-913
ital	-914
▁ate	-915
▁until	-916
▁family	-917
▁tru	-918
▁five	-919
▁tonight	-920
ars	-921
▁ago	-922
▁favor	-923
▁caught	-924
▁decided	-925
where	-926
▁summer	-927
▁trave	-928
▁coming	-929
iness	-930
▁cont	-931
▁forg	-932
▁eating	-933
▁head	-934
pr	-935
▁myself	-936
▁started	-937
▁si	-938
▁kid	-939
▁tele	-940
▁free	-941
▁might	-942
▁shop	-943
man	-944
▁hands	-945
▁seems	-946
▁tri	-947
▁great	-948
▁working	-949
fast	-950
▁nu	-951
▁eyes	-952
▁breakfast	-953
▁movie	-954
▁stand	-955
▁interest	-956
lic	-957
▁sat	-958
▁world	-959
af	-960
▁fell	-961
▁tried	-962
▁police	-963
▁homework	-964
▁wom	-965
▁add	-966
▁drive	-967
▁des	-968
▁travel	-969
med	-970
time	-971
▁hate	-972
▁arrived	-973
de	-974
▁fire	-975
▁music	-976
▁flow	-977
▁tenn	-978
▁tennis	-979
▁bab	-980
▁died	-981
lain	-982
▁cost	-983
ied	-984
▁pay	-985
▁tic	-986
▁exam	-987
▁large	-988
▁supp	-989
▁broke	-990
▁japanese	-991
30	-992
oy	-993
sh	-994
ssible	-995
▁table	-996
osp	-997
▁cry	-998
▁prom	-999
▁dream	-1000
▁coll	-1001
▁end	-1002
▁trans	-1003
cu	-1004
ger	-1005
▁change	-1006
▁meeting	-1007
▁wife	-1008
gether	-1009
▁monday	-1010
ail	-1011
mit	-1012
ons	-1013
▁el	-1014
▁six	-1015
▁birth	-1016
▁living	-1017
▁looked	-1018
by	-1019
▁ru	-1020
▁smoking	-1021
▁everybody	-1022
cess	-1023
▁import	-1024
▁grand	-1025
▁surpr	-1026
▁wearing	-1027
▁business	-1028
alth	-1029
▁sun	-1030
▁each	-1031
▁close	-1032
▁glass	-1033
▁shoes	-1034
▁hair	-1035
▁hosp	-1036
icycle	-1037
▁angry	-1038
▁hospital	-1039
▁interesting	-1040
▁forget	-1041
▁students	-1042
angu	-1043
▁cup	-1044
▁suc	-1045
▁langu	-1046
▁store	-1047
▁called	-1048
▁forgot	-1049
als	-1050
▁kne	-1051
▁ser	-1052
feren	-1053
▁hours	-1054
ber	-1055
ming	-1056
▁fore	-1057
▁gone	-1058
▁most	-1059
▁trip	-1060
▁wine	-1061
▁dress	-1062
▁older	-1063
▁river	-1064
▁bicycle	-1065
fer	-1066
▁even	-1067
▁hurt	-1068
▁times	-1069
▁together	-1070
▁rel	-1071
▁lives	-1072
▁later	-1073
ize	-1074
vel	-1075
▁red	-1076
clock	-1077
br	-1078
ret	-1079
tel	-1080
▁cut	-1081
▁story	-1082
▁wants	-1083
▁raining	-1084
▁hotel	-1085
ced	-1086
room	-1087
▁sen	-1088
▁baby	-1089
ky	-1090
ub	-1091
▁doll	-1092
▁longer	-1093
▁outside	-1094
▁egg	-1095
▁pret	-1096
▁bring	-1097
av	-1098
▁ran	-1099
▁pick	-1100
▁catch	-1101
▁quite	-1102
▁short	-1103
▁afterno	-1104
▁country	-1105
int	-1106
ween	-1107
▁asleep	-1108
▁afternoon	-1109
oup	-1110
ward	-1111
▁ele	-1112
▁ready	-1113
▁office	-1114
pens	-1115
▁else	-1116
▁number	-1117
▁bag	-1118
▁dep	-1119
▁med	-1120
▁between	-1121
ors	-1122
sted	-1123
ating	-1124
▁hungry	-1125
▁studying	-1126
▁box	-1127
▁city	-1128
▁mean	-1129
▁visit	-1130
ange	-1131
aten	-1132
ason	-1133
llow	-1134
ross	-1135
▁nobody	-1136
▁birthday	-1137
▁important	-1138
iet	-1139
mbre	-1140
mbrell	-1141
▁umbrell	-1142
▁enj	-1143
▁clean	-1144
dd	-1145
▁inv	-1146
▁real	-1147
▁sound	-1148
▁pretty	-1149
ilk	-1150
ions	-1151
▁act	-1152
ves	-1153
▁eve	-1154
anger	-1155
▁fast	-1156
▁differen	-1157
▁umbrella	-1158
lt	-1159
▁tre	-1160
itc	-1161
▁thr	-1162
▁mine	-1163
▁expens	-1164
▁transl	-1165
ouble	-1166
▁tall	-1167
ike	-1168
uck	-1169
▁born	-1170
▁worry	-1171
▁shouldn	-1172
ont	-1173
▁dark	-1174
▁become	-1175
▁himself	-1176
adi	-1177
▁kill	-1178
▁knew	-1179
▁wall	-1180
▁moment	-1181
▁through	-1182
be	-1183
kyo	-1184
▁ph	-1185
▁beer	-1186
▁heav	-1187
▁town	-1188
▁build	-1189
▁tokyo	-1190
▁whether	-1191
ord	-1192
▁sal	-1193
▁ste	-1194
▁goes	-1195
ker	-1196
ters	-1197
▁enjoy	-1198
▁present	-1199
▁swimming	-1200
less	-1201
▁bur	-1202
▁medic	-1203
▁favorite	-1204
▁son	-1205
▁glad	-1206
▁front	-1207
▁truth	-1208
▁hurry	-1209
ountain	-1210
▁listen	-1211
▁expensive	-1212
ier	-1213
oke	-1214
▁milk	-1215
▁health	-1216
▁anybody	-1217
so	-1218
▁clot	-1219
▁concer	-1220
irt	-1221
led	-1222
▁im	-1223
ared	-1224
▁rem	-1225
▁eaten	-1226
▁trouble	-1227
▁felt	-1228
▁then	-1229
▁word	-1230
▁begin	-1231
▁cr	-1232
turn	-1233
phone	-1234
aur	-1235
port	-1236
▁spe	-1237
▁song	-1238
more	-1239
ash	-1240
fort	-1241
rist	-1242
▁cor	-1243
▁kept	-1244
▁taking	-1245
▁thanks	-1246
▁wouldn	-1247
▁bath	-1248
▁says	-1249
▁slow	-1250
▁inter	-1251
app	-1252
nday	-1253
▁sunday	-1254
unk	-1255
▁hit	-1256
▁tax	-1257
▁cake	-1258
aurant	-1259
▁earth	-1260
▁anymore	-1261
▁restaurant	-1262
▁ju	-1263
▁full	-1264
▁stre	-1265
▁flowers	-1266
aste	-1267
olog	-1268
tain	-1269
▁christ	-1270
▁street	-1271
▁thirty	-1272
▁stopped	-1273
ient	-1274
▁ref	-1275
▁hu	-1276
hind	-1277
tend	-1278
▁seat	-1279
▁behind	-1280
▁questions	-1281
ged	-1282
▁makes	-1283
▁set	-1284
▁comes	-1285
▁quick	-1286
▁mountain	-1287
aw	-1288
mas	-1289
ned	-1290
iate	-1291
▁age	-1292
▁fail	-1293
▁temp	-1294
▁test	-1295
▁tree	-1296
iction	-1297
aughter	-1298
▁watching	-1299
wh	-1300
▁aw	-1301
▁rich	-1302
▁along	-1303
air	-1304
road	-1305
▁order	-1306
▁feeling	-1307
ably	-1308
ouch	-1309
ying	-1310
▁hat	-1311
iting	-1312
▁kiss	-1313
▁having	-1314
▁sol	-1315
▁base	-1316
▁heavy	-1317
▁closed	-1318
per	-1319
▁colle	-1320
▁compu	-1321
▁christmas	-1322
▁began	-1323
▁camera	-1324
▁college	-1325
ched	-1326
▁ill	-1327
brary	-1328
meric	-1329
▁americ	-1330
▁library	-1331
ither	-1332
▁eggs	-1333
▁stayed	-1334
ping	-1335
▁vac	-1336
ision	-1337
▁radi	-1338
▁quiet	-1339
▁building	-1340
ition	-1341
▁foot	-1342
▁abroad	-1343
▁dec	-1344
▁lived	-1345
▁danger	-1346
▁ticket	-1347
▁blue	-1348
▁prob	-1349
▁surprised	-1350
cept	-1351
▁flo	-1352
▁ter	-1353
▁hold	-1354
▁road	-1355
▁check	-1356
▁return	-1357
▁clothes	-1358
any	-1359
ates	-1360
▁bank	-1361
▁agree	-1362
▁dollars	-1363
▁black	-1364
▁clear	-1365
▁white	-1366
lfriend	-1367
▁possible	-1368
▁speaking	-1369
▁men	-1370
▁send	-1371
▁spend	-1372
▁diction	-1373
▁medicine	-1374
▁sometime	-1375
▁vo	-1376
lete	-1377
▁radio	-1378
▁advice	-1379
▁making	-1380
▁secret	-1381
▁girlfriend	-1382
my	-1383
rect	-1384
▁baseball	-1385
mon	-1386
▁ob	-1387
▁prefer	-1388
▁key	-1389
▁fine	-1390
▁shut	-1391
▁bread	-1392
▁younger	-1393
▁probably	-1394
ial	-1395
ire	-1396
dden	-1397
▁hor	-1398
▁yen	-1399
▁taste	-1400
▁borrow	-1401
▁follow	-1402
sc	-1403
ness	-1404
▁fix	-1405
▁sub	-1406
▁gets	-1407
▁chance	-1408
▁sug	-1409
ience	-1410
▁clim	-1411
▁half	-1412
▁quit	-1413
▁paper	-1414
▁became	-1415
▁serious	-1416
▁dictionary	-1417
mell	-1418
▁dogs	-1419
▁chair	-1420
▁smell	-1421
▁winter	-1422
▁daughter	-1423
▁telephone	-1424
bed	-1425
ject	-1426
kets	-1427
▁pop	-1428
▁dead	-1429
▁face	-1430
▁grow	-1431
▁saying	-1432
▁forward	-1433
▁thinking	-1434
cuse	-1435
ring	-1436
▁reg	-1437
▁desk	-1438
erv	-1439
teen	-1440
▁drop	-1441
▁woman	-1442
▁finish	-1443
ps	-1444
not	-1445
ular	-1446
ured	-1447
▁cal	-1448
ently	-1449
▁weight	-1450
▁careful	-1451
▁interested	-1452
bit	-1453
ages	-1454
▁dist	-1455
▁novel	-1456
▁rather	-1457
▁quickly	-1458
▁strange	-1459
▁language	-1460
▁pie	-1461
▁fall	-1462
▁post	-1463
▁computer	-1464
▁emp	-1465
▁lie	-1466
ected	-1467
▁spent	-1468
▁ve	-1469
▁apolog	-1470
▁strong	-1471
▁trying	-1472
▁cho	-1473
▁leg	-1474
▁lend	-1475
az	-1476
▁die	-1477
▁less	-1478
▁smoke	-1479
▁evening	-1480
▁explain	-1481
▁ins	-1482
▁side	-1483
▁address	-1484
▁vacation	-1485
ries	-1486
▁cats	-1487
▁pian	-1488
▁floor	-1489
▁laugh	-1490
▁whose	-1491
▁planning	-1492
ator	-1493
▁ice	-1494
uring	-1495
▁exact	-1496
▁seven	-1497
▁uncle	-1498
yp	-1499
fect	-1500
idge	-1501
affic	-1502
▁four	-1503
▁plane	-1504
▁disapp	-1505
▁traffic	-1506
30.	-1507
ics	-1508
▁exc	-1509
▁par	-1510
▁drunk	-1511
▁touch	-1512
▁company	-1513
▁sometimes	-1514
ex	-1515
land	-1516
rote	-1517
▁grad	-1518
▁whole	-1519
▁crying	-1520
▁others	-1521
▁sudden	-1522
▁promise	-1523
enty	-1524
▁cap	-1525
▁luck	-1526
▁taxi	-1527
▁wrote	-1528
ces	-1529
ove	-1530
▁soc	-1531
▁speaks	-1532
▁also	-1533
▁spring	-1534
▁att	-1535
▁works	-1536
▁finally	-1537
ual	-1538
▁kn	-1539
▁guy	-1540
▁weekend	-1541
▁col	-1542
▁cons	-1543
▁hasn	-1544
▁exper	-1545
▁broken	-1546
ked	-1547
▁fre	-1548
▁typ	-1549
▁anim	-1550
▁past	-1551
▁rece	-1552
▁newsp	-1553
▁price	-1554
▁reason	-1555
▁complete	-1556
ased	-1557
▁lock	-1558
▁concert	-1559
▁shopping	-1560
▁expect	-1561
▁against	-1562
sp	-1563
ical	-1564
iday	-1565
▁abs	-1566
▁ball	-1567
▁apple	-1568
▁delic	-1569
▁piano	-1570
▁words	-1571
ilt	-1572
she	-1573
▁fu	-1574
▁sn	-1575
ired	-1576
ized	-1577
arden	-1578
▁poor	-1579
▁blood	-1580
▁driver	-1581
▁second	-1582
▁walked	-1583
▁sitting	-1584
cil	-1585
oud	-1586
▁ce	-1587
ding	-1588
▁lau	-1589
▁point	-1590
▁garden	-1591
▁changed	-1592
▁drinking	-1593
▁z	-1594
▁sim	-1595
ceed	-1596
ully	-1597
ative	-1598
▁kids	-1599
▁safe	-1600
▁sell	-1601
▁known	-1602
▁absent	-1603
▁across	-1604
▁bottle	-1605
▁during	-1606
▁pencil	-1607
▁success	-1608
▁pictures	-1609
ny	-1610
form	-1611
outh	-1612
▁inc	-1613
▁sky	-1614
▁coat	-1615
▁moon	-1616
▁carry	-1617
▁passed	-1618
▁seeing	-1619
▁worried	-1620
▁mistakes	-1621
000	-1622
uit	-1623
ling	-1624
▁its	-1625
▁ski	-1626
▁sign	-1627
▁movies	-1628
▁exactly	-1629
do	-1630
,000	-1631
fully	-1632
▁wake	-1633
▁death	-1634
▁slowly	-1635
▁driving	-1636
gest	-1637
what	-1638
▁pri	-1639
▁eight	-1640
▁walking	-1641
▁3	-1642
olen	-1643
omed	-1644
▁case	-1645
▁move	-1646
▁rice	-1647
▁wash	-1648
▁shirt	-1649
▁sight	-1650
▁trust	-1651
▁women	-1652
▁shower	-1653
▁foreign	-1654
ush	-1655
▁op	-1656
▁ra	-1657
used	-1658
▁inj	-1659
▁lose	-1660
▁seem	-1661
▁stra	-1662
▁teach	-1663
artment	-1664
▁hardly	-1665
▁succeed	-1666
izz	-1667
▁20	-1668
▁pat	-1669
aster	-1670
inted	-1671
▁allow	-1672
▁easily	-1673
▁killed	-1674
▁stolen	-1675
▁staying	-1676
airs	-1677
▁gif	-1678
▁hum	-1679
▁opin	-1680
▁takes	-1681
▁complain	-1682
ins	-1683
ived	-1684
▁law	-1685
▁stup	-1686
▁noise	-1687
▁taken	-1688
▁played	-1689
▁somebody	-1690
▁delicious	-1691
zy	-1692
▁bar	-1693
▁char	-1694
▁fact	-1695
▁lying	-1696
▁apples	-1697
▁stupid	-1698
▁airport	-1699
pl	-1700
▁cur	-1701
ature	-1702
ivers	-1703
▁cour	-1704
▁crow	-1705
▁line	-1706
▁mach	-1707
▁pizz	-1708
▁sleepy	-1709
▁worked	-1710
▁glasses	-1711
▁leaving	-1712
ton	-1713
aged	-1714
▁rid	-1715
▁card	-1716
▁cheap	-1717
▁empty	-1718
▁loves	-1719
▁somewhere	-1720
ib	-1721
ense	-1722
▁earl	-1723
father	-1724
co	-1725
mar	-1726
ighb	-1727
▁aff	-1728
▁top	-1729
▁wat	-1730
▁conf	-1731
▁ring	-1732
▁canad	-1733
▁heart	-1734
▁pizza	-1735
▁sport	-1736
▁storm	-1737
▁telev	-1738
▁yours	-1739
▁neighb	-1740
▁cooking	-1741
▁perfect	-1742
hen	-1743
▁swe	-1744
ndred	-1745
▁sand	-1746
▁cream	-1747
▁girls	-1748
▁least	-1749
▁needs	-1750
▁rains	-1751
▁cheese	-1752
▁hundred	-1753
▁running	-1754
rec	-1755
band	-1756
ison	-1757
▁oct	-1758
▁tie	-1759
friend	-1760
▁opened	-1761
▁soccer	-1762
▁brought	-1763
▁earlier	-1764
▁sleeping	-1765
▁completely	-1766
how	-1767
▁ext	-1768
▁meat	-1769
▁phot	-1770
▁fruit	-1771
▁cannot	-1772
▁difference	-1773
▁television	-1774
ye	-1775
rew	-1776
▁sugar	-1777
▁veget	-1778
▁famous	-1779
▁temper	-1780
▁machine	-1781
▁dangerous	-1782
▁grandfather	-1783
ober	-1784
▁fut	-1785
▁pur	-1786
▁sea	-1787
▁coup	-1788
▁joke	-1789
▁mail	-1790
▁prop	-1791
usband	-1792
▁lights	-1793
▁newspaper	-1794
gr	-1795
hn	-1796
tent	-1797
▁hid	-1798
▁guys	-1799
▁salt	-1800
▁horse	-1801
▁arrive	-1802
▁attend	-1803
▁injured	-1804
▁october	-1805
du	-1806
▁john	-1807
▁wood	-1808
ations	-1809
▁beach	-1810
▁either	-1811
▁disappo	-1812
▁univers	-1813
▁different	-1814
ief	-1815
pped	-1816
▁chur	-1817
▁gift	-1818
▁team	-1819
▁warm	-1820
▁helped	-1821
▁wallet	-1822
▁husband	-1823
▁writing	-1824
ple	-1825
that	-1826
▁deal	-1827
▁kitc	-1828
▁lake	-1829
excuse	-1830
▁crowd	-1831
▁sense	-1832
▁church	-1833
▁necess	-1834
▁talked	-1835
▁correct	-1836
▁kitchen	-1837
▁apologize	-1838
▁10	-1839
ants	-1840
ater	-1841
tered	-1842
▁bill	-1843
▁vill	-1844
tening	-1845
▁fault	-1846
▁smart	-1847
▁listening	-1848
oth	-1849
oun	-1850
this	-1851
▁map	-1852
▁boys	-1853
▁held	-1854
▁prof	-1855
▁sold	-1856
▁enter	-1857
▁knife	-1858
▁terri	-1859
▁translate	-1860
str	-1861
head	-1862
itar	-1863
▁bas	-1864
▁fif	-1865
▁fly	-1866
▁hol	-1867
▁pub	-1868
▁bike	-1869
▁prep	-1870
▁rent	-1871
▁mouth	-1872
mediate	-1873
▁guitar	-1874
▁kissed	-1875
▁report	-1876
▁fishing	-1877
ined	-1878
oose	-1879
▁arm	-1880
▁eye	-1881
▁mid	-1882
▁paid	-1883
uation	-1884
▁moved	-1885
▁weeks	-1886
▁couple	-1887
▁future	-1888
▁animals	-1889
▁holiday	-1890
▁suddenly	-1891
▁av	-1892
ache	-1893
ever	-1894
▁gas	-1895
itten	-1896
▁cute	-1897
▁mess	-1898
▁resp	-1899
▁cross	-1900
▁green	-1901
▁maybe	-1902
▁press	-1903
▁contin	-1904
▁opinion	-1905
▁boyfriend	-1906
▁immediate	-1907
ji	-1908
ghed	-1909
oned	-1910
▁sad	-1911
▁sil	-1912
▁impo	-1913
▁suit	-1914
▁super	-1915
▁worth	-1916
▁scared	-1917
▁watched	-1918
▁recently	-1919
▁languages	-1920
▁impossible	-1921
anc	-1922
eth	-1923
oof	-1924
▁wed	-1925
veral	-1926
▁cool	-1927
▁deep	-1928
▁ride	-1929
▁throw	-1930
▁voice	-1931
▁months	-1932
▁thinks	-1933
▁windows	-1934
▁au	-1935
▁pu	-1936
ored	-1937
▁kil	-1938
▁mag	-1939
▁nerv	-1940
mitted	-1941
▁built	-1942
▁climb	-1943
▁color	-1944
▁senten	-1945
▁showed	-1946
▁nervous	-1947
▁several	-1948
▁low	-1949
ained	-1950
▁rang	-1951
▁solve	-1952
▁university	-1953
ze	-1954
une	-1955
▁del	-1956
▁wha	-1957
▁trees	-1958
▁leaves	-1959
▁tastes	-1960
▁village	-1961
▁received	-1962
▁supposed	-1963
col	-1964
▁ed	-1965
▁je	-1966
▁mt	-1967
irty	-1968
▁bri	-1969
▁cer	-1970
quake	-1971
▁bird	-1972
▁sent	-1973
▁soup	-1974
ousand	-1975
▁hurts	-1976
▁failed	-1977
▁missed	-1978
▁learned	-1979
▁anywhere	-1980
▁earthquake	-1981
ric	-1982
ider	-1983
dered	-1984
iling	-1985
▁fill	-1986
ressed	-1987
▁spoke	-1988
▁suitc	-1989
ination	-1990
▁grandm	-1991
▁america	-1992
ff	-1993
▁ind	-1994
ident	-1995
since	-1996
vered	-1997
▁nine	-1998
▁swea	-1999
▁fresh	-2000
▁means	-2001
▁inform	-2002
▁invited	-2003
▁thousand	-2004
erg	-2005
iew	-2006
▁lad	-2007
▁chin	-2008
▁draw	-2009
▁afford	-2010
▁except	-2011
▁inside	-2012
▁though	-2013
▁covered	-2014
▁laughed	-2015
▁sweater	-2016
▁expected	-2017
▁immediately	-2018
oub	-2019
▁ir	-2020
▁esc	-2021
▁fat	-2022
ction	-2023
icken	-2024
▁spec	-2025
▁plans	-2026
▁common	-2027
▁waited	-2028
▁missing	-2029
▁tickets	-2030
ener	-2031
lves	-2032
which	-2033
▁lots	-2034
▁pres	-2035
▁till	-2036
▁fever	-2037
▁season	-2038
▁distance	-2039
▁situation	-2040
cc	-2041
amp	-2042
con	-2043
▁art	-2044
▁ass	-2045
▁eur	-2046
▁poc	-2047
▁rum	-2048
▁spo	-2049
ument	-2050
▁calm	-2051
▁cars	-2052
▁golf	-2053
▁hang	-2054
▁jump	-2055
▁math	-2056
▁escap	-2057
▁teeth	-2058
▁rained	-2059
▁visited	-2060
ho	-2061
book	-2062
even	-2063
▁ben	-2064
▁cra	-2065
▁pic	-2066
after	-2067
▁fuji	-2068
▁keys	-2069
▁ought	-2070
▁bridge	-2071
▁certain	-2072
▁telling	-2073
▁translated	-2074
aus	-2075
▁cop	-2076
▁mot	-2077
ately	-2078
▁date	-2079
▁fing	-2080
▁join	-2081
▁none	-2082
▁pull	-2083
▁clock	-2084
▁liked	-2085
▁loved	-2086
▁truck	-2087
▁apprec	-2088
▁button	-2089
▁chicken	-2090
▁wedding	-2091
▁carefully	-2092
▁disappointed	-2093
let	-2094
▁em	-2095
acks	-2096
cuss	-2097
ices	-2098
▁nor	-2099
▁sle	-2100
ached	-2101
▁grew	-2102
▁mood	-2103
▁guess	-2104
▁sounds	-2105
▁sports	-2106
hey	-2107
cent	-2108
▁flu	-2109
▁lic	-2110
▁occ	-2111
▁imag	-2112
▁stom	-2113
vented	-2114
▁drank	-2115
▁lucky	-2116
▁piece	-2117
▁intend	-2118
▁happens	-2119
▁popular	-2120
▁washing	-2121
▁canadian	-2122
come	-2123
iced	-2124
iled	-2125
seum	-2126
ults	-2127
▁ger	-2128
▁ris	-2129
arely	-2130
▁hist	-2131
▁pond	-2132
▁sandw	-2133
▁usual	-2134
▁belong	-2135
▁butter	-2136
▁discuss	-2137
▁herself	-2138
▁learning	-2139
▁passport	-2140
▁apartment	-2141
▁necessary	-2142
hood	-2143
like	-2144
▁def	-2145
ables	-2146
▁club	-2147
▁note	-2148
▁funny	-2149
▁museum	-2150
▁public	-2151
▁supper	-2152
▁twenty	-2153
fortable	-2154
▁studied	-2155
▁returned	-2156
ane	-2157
ior	-2158
aces	-2159
▁bat	-2160
▁expl	-2161
▁shot	-2162
▁dance	-2163
▁divor	-2164
▁gradu	-2165
▁habit	-2166
▁choose	-2167
▁harder	-2168
▁license	-2169
▁patient	-2170
▁standing	-2171
▁supermar	-2172
▁appreciate	-2173
ks	-2174
▁gra	-2175
▁gun	-2176
acket	-2177
iving	-2178
▁cred	-2179
▁rules	-2180
▁waste	-2181
▁basket	-2182
▁seemed	-2183
▁single	-2184
▁history	-2185
▁pretend	-2186
▁headache	-2187
▁sentence	-2188
▁grandmother	-2189
▁information	-2190
dle	-2191
ech	-2192
ogr	-2193
onest	-2194
▁bear	-2195
▁doub	-2196
▁shar	-2197
▁alive	-2198
▁pract	-2199
▁straw	-2200
▁german	-2201
▁honest	-2202
ume	-2203
▁ent	-2204
eared	-2205
▁area	-2206
▁clou	-2207
▁woke	-2208
▁fight	-2209
▁credit	-2210
▁dishes	-2211
▁europe	-2212
▁states	-2213
▁singing	-2214
▁traveling	-2215
than	-2216
▁adm	-2217
▁wet	-2218
riger	-2219
▁fool	-2220
▁roof	-2221
▁rule	-2222
▁cards	-2223
▁match	-2224
▁corner	-2225
▁enjoyed	-2226
▁meaning	-2227
▁written	-2228
▁football	-2229
▁refriger	-2230
▁supermarket	-2231
▁temperature	-2232
gu	-2233
bby	-2234
bec	-2235
ole	-2236
tead	-2237
▁rab	-2238
▁sof	-2239
ility	-2240
▁arre	-2241
▁boss	-2242
▁feet	-2243
▁ship	-2244
selves	-2245
▁marry	-2246
▁rumor	-2247
▁depend	-2248
▁locked	-2249
▁prison	-2250
▁speech	-2251
▁dropped	-2252
▁actually	-2253
▁refrigerator	-2254
ax	-2255
ef	-2256
gn	-2257
iv	-2258
ade	-2259
erc	-2260
gers	-2261
ldom	-2262
▁oil	-2263
usted	-2264
▁agre	-2265
▁beha	-2266
▁diet	-2267
▁list	-2268
▁ahead	-2269
▁chocol	-2270
▁drinks	-2271
▁rabbit	-2272
▁seldom	-2273
▁letters	-2274
▁problems	-2275
▁suitcase	-2276
wel	-2277
▁dad	-2278
▁int	-2279
▁sofa	-2280
▁given	-2281
▁shall	-2282
▁tears	-2283
▁faster	-2284
▁united	-2285
▁account	-2286
▁special	-2287
▁subject	-2288
for	-2289
▁vi	-2290
▁fig	-2291
▁maj	-2292
▁squ	-2293
ondon	-2294
vious	-2295
▁boat	-2296
▁clos	-2297
▁mile	-2298
▁page	-2299
▁peace	-2300
▁flower	-2301
▁native	-2302
▁brothers	-2303
▁neighbor	-2304
ato	-2305
akes	-2306
reme	-2307
▁opp	-2308
▁lawy	-2309
▁susp	-2310
▁birds	-2311
▁keeps	-2312
▁stole	-2313
▁sweet	-2314
▁appear	-2315
▁choice	-2316
▁course	-2317
▁flight	-2318
▁london	-2319
▁partic	-2320
▁worker	-2321
▁cookies	-2322
▁healthy	-2323
▁reached	-2324
▁arrested	-2325
▁promised	-2326
▁chocolate	-2327
▁vegetables	-2328
aked	-2329
▁gar	-2330
▁acqu	-2331
▁bite	-2332
▁cond	-2333
▁rock	-2334
▁charge	-2335
▁plenty	-2336
▁taught	-2337
▁extreme	-2338
▁bathroom	-2339
▁decision	-2340
▁terrible	-2341
omm	-2342
▁30	-2343
ines	-2344
ract	-2345
▁pot	-2346
aking	-2347
▁eats	-2348
▁feed	-2349
▁gold	-2350
▁legs	-2351
▁lied	-2352
▁bench	-2353
▁sched	-2354
▁stood	-2355
▁talks	-2356
because	-2357
▁contact	-2358
▁neither	-2359
▁ordered	-2360
▁profess	-2361
▁strawber	-2362
can	-2363
isf	-2364
pper	-2365
▁mem	-2366
▁val	-2367
could	-2368
mbers	-2369
oring	-2370
urday	-2371
▁tour	-2372
▁accept	-2373
▁gotten	-2374
▁sisters	-2375
▁stomach	-2376
▁saturday	-2377
od	-2378
ler	-2379
oid	-2380
set	-2381
ches	-2382
tery	-2383
▁cri	-2384
ieved	-2385
▁mill	-2386
▁noon	-2387
fortun	-2388
▁cance	-2389
▁plays	-2390
▁threw	-2391
tention	-2392
▁island	-2393
▁likely	-2394
▁needed	-2395
▁skiing	-2396
▁sooner	-2397
▁allowed	-2398
▁american	-2399
▁classroom	-2400
em	-2401
oc	-2402
mat	-2403
ror	-2404
▁gh	-2405
cted	-2406
▁kno	-2407
▁tot	-2408
ities	-2409
ushed	-2410
▁pool	-2411
▁requ	-2412
▁exerc	-2413
▁fixed	-2414
▁ghost	-2415
▁hates	-2416
▁agreed	-2417
▁dating	-2418
▁propos	-2419
▁singer	-2420
▁laughing	-2421
▁personal	-2422
▁thirteen	-2423
oint	-2424
▁dem	-2425
▁due	-2426
▁loc	-2427
tever	-2428
▁body	-2429
▁caus	-2430
▁loud	-2431
▁pair	-2432
▁magaz	-2433
▁raise	-2434
▁relax	-2435
ulation	-2436
▁decide	-2437
▁satisf	-2438
▁washed	-2439
▁experience	-2440
▁comfortable	-2441
bb	-2442
bs	-2443
ots	-2444
▁sy	-2445
arch	-2446
▁aut	-2447
▁cow	-2448
▁lay	-2449
▁tag	-2450
herry	-2451
▁intro	-2452
▁smile	-2453
▁stuck	-2454
▁treat	-2455
▁asking	-2456
▁burned	-2457
▁dreams	-2458
▁fridge	-2459
▁jacket	-2460
▁lawyer	-2461
▁notice	-2462
▁attention	-2463
▁extremely	-2464
▁wonderful	-2465
▁examination	-2466
cy	-2467
fr	-2468
ru	-2469
dge	-2470
hol	-2471
sit	-2472
aker	-2473
gram	-2474
olute	-2475
▁bell	-2476
▁comm	-2477
▁cust	-2478
▁furn	-2479
▁lone	-2480
▁viol	-2481
omeday	-2482
ommend	-2483
▁games	-2484
▁polit	-2485
▁slept	-2486
▁cherry	-2487
▁spoken	-2488
▁advised	-2489
▁entered	-2490
▁absolute	-2491
▁recommend	-2492
fortunately	-2493
▁cig	-2494
▁cash	-2495
▁heat	-2496
▁runs	-2497
▁york	-2498
▁above	-2499
▁appro	-2500
▁aware	-2501
▁email	-2502
▁neare	-2503
▁reply	-2504
▁sharp	-2505
▁toile	-2506
▁begins	-2507
▁excuse	-2508
▁lonely	-2509
▁crowded	-2510
▁consider	-2511
▁depressed	-2512
▁policeman	-2513
▁seriously	-2514
den	-2515
its	-2516
vers	-2517
▁dut	-2518
apers	-2519
▁meal	-2520
▁save	-2521
▁size	-2522
▁type	-2523
▁accom	-2524
▁chess	-2525
▁crazy	-2526
▁doubt	-2527
▁engine	-2528
▁ground	-2529
▁kilome	-2530
▁nearby	-2531
▁within	-2532
▁calling	-2533
▁continu	-2534
▁express	-2535
▁instead	-2536
▁noticed	-2537
▁program	-2538
▁snowing	-2539
▁someday	-2540
▁painting	-2541
3.	-2542
ug	-2543
ask	-2544
cts	-2545
eas	-2546
may	-2547
min	-2548
nic	-2549
ule	-2550
lled	-2551
look	-2552
will	-2553
▁det	-2554
▁doc	-2555
▁equ	-2556
sorry	-2557
ution	-2558
▁cent	-2559
▁elev	-2560
▁stam	-2561
▁step	-2562
stairs	-2563
▁avoid	-2564
▁dirty	-2565
▁motor	-2566
▁offer	-2567
▁twice	-2568
▁accust	-2569
▁allerg	-2570
▁bother	-2571
▁breath	-2572
▁passen	-2573
▁player	-2574
▁regret	-2575
▁curtain	-2576
▁nearest	-2577
▁document	-2578
che	-2579
ens	-2580
lew	-2581
rel	-2582
tte	-2583
unt	-2584
ury	-2585
yed	-2586
ises	-2587
ists	-2588
oses	-2589
test	-2590
▁nar	-2591
▁vol	-2592
iture	-2593
ories	-2594
▁dent	-2595
▁disc	-2596
▁ears	-2597
▁land	-2598
▁view	-2599
arette	-2600
▁cause	-2601
▁famil	-2602
▁hobby	-2603
▁stars	-2604
▁towel	-2605
▁using	-2606
▁worse	-2607
▁detail	-2608
▁reserv	-2609
▁cheaper	-2610
▁chinese	-2611
▁dressed	-2612
▁illness	-2613
▁million	-2614
▁suggest	-2615
▁schedule	-2616
▁whatever	-2617
▁cigarette	-2618
▁population	-2619
fl	-2620
don	-2621
iar	-2622
ards	-2623
▁mis	-2624
acked	-2625
ograp	-2626
ouses	-2627
▁brow	-2628
▁cast	-2629
▁inst	-2630
▁incre	-2631
▁cancer	-2632
▁finger	-2633
▁france	-2634
▁handle	-2635
▁middle	-2636
▁silent	-2637
▁smells	-2638
▁introdu	-2639
▁speaker	-2640
▁sundays	-2641
▁surprise	-2642
▁furniture	-2643
▁accustomed	-2644
old	-2645
oms	-2646
oss	-2647
res	-2648
▁ef	-2649
mary	-2650
with	-2651
▁nur	-2652
▁tur	-2653
aired	-2654
wered	-2655
▁hung	-2656
▁king	-2657
▁lift	-2658
▁pale	-2659
ically	-2660
▁airpl	-2661
▁rainy	-2662
▁stone	-2663
▁third	-2664
▁typho	-2665
▁picked	-2666
▁pocket	-2667
▁toilet	-2668
▁warmer	-2669
▁obvious	-2670
▁painted	-2671
▁exercise	-2672
▁repaired	-2673
▁satisfied	-2674
ns	-2675
cks	-2676
key	-2677
ered	-2678
ging	-2679
hand	-2680
llig	-2681
rent	-2682
▁emb	-2683
▁fog	-2684
▁nap	-2685
anges	-2686
cohol	-2687
every	-2688
▁cell	-2689
▁gate	-2690
▁neck	-2691
▁skin	-2692
▁acted	-2693
▁diary	-2694
▁fired	-2695
▁meals	-2696
▁roses	-2697
▁thief	-2698
▁picnic	-2699
▁prices	-2700
▁taller	-2701
▁climbed	-2702
▁escaped	-2703
▁oranges	-2704
▁answered	-2705
▁proposal	-2706
▁teaching	-2707
▁basketball	-2708
▁strawberries	-2709
ets	-2710
ird	-2711
isy	-2712
ogn	-2713
rol	-2714
▁er	-2715
▁ye	-2716
ngue	-2717
ower	-2718
some	-2719
ural	-2720
▁201	-2721
▁hig	-2722
▁ign	-2723
▁mur	-2724
conom	-2725
▁fort	-2726
▁hide	-2727
▁prin	-2728
▁bloss	-2729
▁board	-2730
▁ended	-2731
▁feels	-2732
▁impro	-2733
▁econom	-2734
▁eleven	-2735
▁lately	-2736
▁prepar	-2737
▁recogn	-2738
▁remind	-2739
▁tongue	-2740
▁useful	-2741
▁factory	-2742
▁managed	-2743
▁results	-2744
▁support	-2745
▁intellig	-2746
▁president	-2747
▁particular	-2748
▁passengers	-2749
uc	-2750
arm	-2751
ppy	-2752
ril	-2753
ugg	-2754
erve	-2755
ilar	-2756
▁god	-2757
▁pun	-2758
▁zoo	-2759
asure	-2760
ctive	-2761
ising	-2762
ocked	-2763
▁fair	-2764
▁hadn	-2765
▁norm	-2766
▁reti	-2767
▁thro	-2768
ainted	-2769
▁april	-2770
▁blame	-2771
▁burst	-2772
▁gener	-2773
▁prize	-2774
▁proud	-2775
▁demand	-2776
▁exchan	-2777
▁orange	-2778
▁raised	-2779
▁rarely	-2780
▁result	-2781
▁stamps	-2782
▁project	-2783
▁similar	-2784
▁condition	-2785
▁prevented	-2786
gen	-2787
ager	-2788
amed	-2789
bbed	-2790
▁ban	-2791
▁spl	-2792
▁wel	-2793
cycle	-2794
hemat	-2795
inite	-2796
▁duty	-2797
▁hall	-2798
▁hill	-2799
▁hole	-2800
▁lady	-2801
▁rope	-2802
▁rude	-2803
▁sale	-2804
▁sort	-2805
ission	-2806
▁elect	-2807
▁fifty	-2808
▁pants	-2809
▁photo	-2810
▁bright	-2811
▁direct	-2812
▁easier	-2813
▁ghosts	-2814
▁houses	-2815
▁nearly	-2816
▁pulled	-2817
▁thirst	-2818
▁hearing	-2819
▁typhoon	-2820
▁admitted	-2821
▁mathemat	-2822
▁practice	-2823
▁traveled	-2824
▁whenever	-2825
▁motorcycle	-2826
!"	-2827
ays	-2828
cast	-2829
haps	-2830
ones	-2831
rupt	-2832
▁dam	-2833
▁fox	-2834
▁fro	-2835
▁jam	-2836
ested	-2837
ments	-2838
▁exha	-2839
▁lead	-2840
▁ment	-2841
ounded	-2842
▁grass	-2843
▁kinds	-2844
▁meant	-2845
▁miles	-2846
▁noisy	-2847
▁spare	-2848
▁weird	-2849
▁weren	-2850
▁clouds	-2851
▁explan	-2852
▁filled	-2853
▁temple	-2854
▁appoint	-2855
▁sandwich	-2856
▁countries	-2857
▁absolutely	-2858
▁complaining	-2859
go	-2860
bye	-2861
emy	-2862
llo	-2863
ney	-2864
uri	-2865
uts	-2866
zen	-2867
▁ca	-2868
▁da	-2869
aken	-2870
itch	-2871
phan	-2872
vent	-2873
▁100	-2874
▁ann	-2875
▁cab	-2876
▁nat	-2877
▁pig	-2878
board	-2879
icked	-2880
store	-2881
there	-2882
under	-2883
▁beat	-2884
▁form	-2885
▁ital	-2886
▁lies	-2887
▁nose	-2888
▁push	-2889
▁shor	-2890
▁bored	-2891
▁breat	-2892
▁enemy	-2893
▁event	-2894
▁juice	-2895
▁names	-2896
▁reach	-2897
▁stops	-2898
▁tooth	-2899
osition	-2900
▁accomp	-2901
▁beauty	-2902
▁buying	-2903
▁narrow	-2904
▁slight	-2905
▁starts	-2906
▁throat	-2907
▁accused	-2908
▁alcohol	-2909
▁excited	-2910
▁forgive	-2911
▁message	-2912
▁parking	-2913
▁perhaps	-2914
▁pleased	-2915
▁feelings	-2916
▁magazine	-2917
▁remained	-2918
▁kilometers	-2919
oh	-2920
ien	-2921
ips	-2922
ius	-2923
loy	-2924
elve	-2925
last	-2926
well	-2927
▁fil	-2928
▁oce	-2929
▁shy	-2930
olved	-2931
owing	-2932
▁amaz	-2933
▁dest	-2934
▁iron	-2935
▁loss	-2936
▁sore	-2937
▁tend	-2938
▁text	-2939
▁crime	-2940
▁nurse	-2941
▁occur	-2942
▁effort	-2943
▁salary	-2944
▁twelve	-2945
▁capital	-2946
▁dentist	-2947
▁goodbye	-2948
▁helping	-2949
▁workers	-2950
▁blossoms	-2951
▁familiar	-2952
▁beginning	-2953
▁exhausted	-2954
▁neighbors	-2955
▁explanation	-2956
0.	-2957
apt	-2958
ert	-2959
gre	-2960
shi	-2961
ude	-2962
vid	-2963
ndry	-2964
▁dry	-2965
▁non	-2966
ashed	-2967
enter	-2968
▁auth	-2969
▁lent	-2970
▁oper	-2971
ograph	-2972
▁admit	-2973
▁cheek	-2974
▁jacks	-2975
▁jeans	-2976
▁paris	-2977
▁round	-2978
▁speed	-2979
ational	-2980
▁caused	-2981
▁commit	-2982
▁figure	-2983
▁larger	-2984
▁simple	-2985
▁classes	-2986
▁imagine	-2987
▁laundry	-2988
▁elevator	-2989
▁relieved	-2990
▁stranger	-2991
▁continued	-2992
▁graduated	-2993
▁reservation	-2994
wr	-2995
com	-2996
ges	-2997
just	-2998
pose	-2999
rest	-3000
ulty	-3001
urry	-3002
▁coo	-3003
asted	-3004
▁acce	-3005
▁educ	-3006
▁flat	-3007
▁main	-3008
▁orig	-3009
▁phys	-3010
▁rese	-3011
▁weak	-3012
verage	-3013
▁awake	-3014
▁brown	-3015
▁cheer	-3016
▁costs	-3017
▁cried	-3018
▁doors	-3019
▁major	-3020
▁seats	-3021
▁socks	-3022
▁stuff	-3023
▁woods	-3024
▁cookie	-3025
▁handed	-3026
▁repair	-3027
▁control	-3028
▁mention	-3029
▁ringing	-3030
▁thirsty	-3031
▁totally	-3032
▁divorced	-3033
▁holidays	-3034
▁mistaken	-3035
▁notebook	-3036
▁pressure	-3037
▁starting	-3038
▁difficulty	-3039
▁appointment	-3040
▁intelligent	-3041
▁mathematics	-3042
su	-3043
ud	-3044
wa	-3045
▁hi	-3046
bile	-3047
stru	-3048
▁ach	-3049
▁amb	-3050
▁glo	-3051
▁mir	-3052
▁sli	-3053
arian	-3054
entle	-3055
istic	-3056
light	-3057
▁aunt	-3058
▁copy	-3059
▁fond	-3060
▁goal	-3061
▁june	-3062
▁sour	-3063
▁tail	-3064
▁wore	-3065
ashion	-3066
ording	-3067
▁ocean	-3068
▁upset	-3069
▁author	-3070
▁bigger	-3071
▁castle	-3072
▁center	-3073
▁conven	-3074
▁gentle	-3075
▁interp	-3076
▁joking	-3077
▁remain	-3078
▁spread	-3079
▁stairs	-3080
▁failure	-3081
▁purpose	-3082
▁respons	-3083
▁handsome	-3084
▁concerned	-3085
▁mountains	-3086
▁pretended	-3087
▁succeeded	-3088
gan	-3089
ipe	-3090
uce	-3091
▁11	-3092
aded	-3093
ases	-3094
ayed	-3095
give	-3096
here	-3097
irts	-3098
▁bow	-3099
▁fit	-3100
▁carp	-3101
▁fear	-3102
▁poem	-3103
▁scen	-3104
▁soft	-3105
▁dying	-3106
▁human	-3107
▁paint	-3108
▁power	-3109
▁steal	-3110
▁wears	-3111
▁fallen	-3112
▁intern	-3113
▁search	-3114
▁unless	-3115
▁carried	-3116
▁collect	-3117
▁finding	-3118
▁smiling	-3119
▁airplane	-3120
▁cleaning	-3121
▁definite	-3122
▁straight	-3123
▁childhood	-3124
▁department	-3125
▁understood	-3126
rs	-3127
ym	-3128
zz	-3129
ety	-3130
icy	-3131
tem	-3132
umb	-3133
ific	-3134
ilty	-3135
vest	-3136
▁mud	-3137
▁raw	-3138
▁scr	-3139
icide	-3140
ining	-3141
thank	-3142
today	-3143
while	-3144
▁cous	-3145
▁dise	-3146
▁inno	-3147
▁quar	-3148
▁race	-3149
▁roll	-3150
▁stri	-3151
▁wild	-3152
▁2013.	-3153
▁absor	-3154
▁alarm	-3155
▁calls	-3156
▁hesit	-3157
▁knock	-3158
▁shelf	-3159
▁sushi	-3160
▁animal	-3161
▁bottom	-3162
▁forest	-3163
▁guilty	-3164
▁object	-3165
▁polite	-3166
▁snakes	-3167
▁trains	-3168
▁custome	-3169
▁kidding	-3170
▁respect	-3171
▁allergic	-3172
▁appeared	-3173
▁borrowed	-3174
▁careless	-3175
▁accidents	-3176
rit	-3177
good	-3178
iers	-3179
ings	-3180
▁aud	-3181
▁gen	-3182
▁ham	-3183
▁los	-3184
anced	-3185
hurry	-3186
iches	-3187
rance	-3188
▁conv	-3189
▁drug	-3190
▁emer	-3191
▁grap	-3192
▁incl	-3193
▁inse	-3194
▁mask	-3195
▁self	-3196
▁vide	-3197
▁aband	-3198
▁flood	-3199
▁ideas	-3200
▁marri	-3201
▁produ	-3202
▁sales	-3203
▁tight	-3204
ibility	-3205
▁boring	-3206
▁member	-3207
▁potato	-3208
▁toward	-3209
▁unable	-3210
▁unlike	-3211
▁advance	-3212
▁depends	-3213
▁fashion	-3214
▁mondays	-3215
▁natural	-3216
▁shorter	-3217
▁suicide	-3218
▁believed	-3219
▁canceled	-3220
▁electric	-3221
▁involved	-3222
ago	-3223
cut	-3224
els	-3225
hip	-3226
cell	-3227
ints	-3228
over	-3229
vern	-3230
gress	-3231
icago	-3232
irrel	-3233
▁bags	-3234
▁bull	-3235
▁cafe	-3236
▁drow	-3237
▁poss	-3238
▁pron	-3239
overed	-3240
thirty	-3241
▁accep	-3242
▁avail	-3243
▁judge	-3244
▁shake	-3245
▁skirt	-3246
▁terms	-3247
▁video	-3248
looking	-3249
sidered	-3250
▁hiding	-3251
▁master	-3252
▁normal	-3253
▁parked	-3254
▁subway	-3255
▁average	-3256
▁chicago	-3257
▁quietly	-3258
▁theater	-3259
▁welcome	-3260
▁exchange	-3261
▁friendly	-3262
▁interpre	-3263
▁midnight	-3264
▁teachers	-3265
▁upstairs	-3266
▁considered	-3267
▁everywhere	-3268
▁neighborhood	-3269
fo	-3270
cri	-3271
ffer	-3272
ield	-3273
uary	-3274
▁atm	-3275
▁env	-3276
▁gym	-3277
▁hop	-3278
▁unl	-3279
amond	-3280
isted	-3281
▁sung	-3282
▁group	-3283
▁mouse	-3284
▁trick	-3285
cellent	-3286
▁clever	-3287
▁commun	-3288
▁friday	-3289
▁govern	-3290
▁jumped	-3291
▁places	-3292
▁clearly	-3293
▁diamond	-3294
▁jackson	-3295
▁treated	-3296
▁accepted	-3297
▁entrance	-3298
▁kindness	-3299
▁listened	-3300
▁squirrel	-3301
▁unlikely	-3302
▁bookstore	-3303
▁excellent	-3304
▁acquainted	-3305
unfortunately	-3306
ey	-3307
ph	-3308
cul	-3309
use	-3310
xic	-3311
aced	-3312
gged	-3313
view	-3314
▁deb	-3315
▁den	-3316
▁fur	-3317
▁lou	-3318
▁mel	-3319
▁mod	-3320
▁var	-3321
▁ver	-3322
ankly	-3323
ngest	-3324
rated	-3325
▁eigh	-3326
▁ones	-3327
thanks	-3328
▁below	-3329
▁brush	-3330
▁couch	-3331
▁cover	-3332
▁postp	-3333
▁weigh	-3334
▁amount	-3335
▁bitten	-3336
▁classm	-3337
▁depart	-3338
▁flying	-3339
▁handwr	-3340
▁lovely	-3341
▁meters	-3342
▁pepper	-3343
▁snowed	-3344
▁yellow	-3345
▁elephan	-3346
▁largest	-3347
▁members	-3348
▁tallest	-3349
▁believes	-3350
▁experien	-3351
▁marriage	-3352
▁stronger	-3353
▁youngest	-3354
▁available	-3355
pe	-3356
00.	-3357
arr	-3358
ump	-3359
why	-3360
aled	-3361
ives	-3362
line	-3363
once	-3364
rain	-3365
spea	-3366
▁cir	-3367
▁cre	-3368
▁fed	-3369
▁pin	-3370
▁tal	-3371
aches	-3372
aptop	-3373
gging	-3374
hroom	-3375
ional	-3376
oming	-3377
▁arms	-3378
▁coun	-3379
▁dece	-3380
▁effe	-3381
▁film	-3382
▁gree	-3383
▁pill	-3384
▁scar	-3385
▁serv	-3386
▁symp	-3387
▁wise	-3388
▁fence	-3389
▁moder	-3390
▁persu	-3391
▁salad	-3392
▁beside	-3393
▁canada	-3394
▁forced	-3395
▁gloves	-3396
▁laptop	-3397
▁louder	-3398
▁mirror	-3399
▁scream	-3400
▁fifteen	-3401
▁realize	-3402
▁refused	-3403
▁becoming	-3404
▁mushroom	-3405
▁progress	-3406
▁realized	-3407
▁soldiers	-3408
▁happening	-3409
▁happiness	-3410
▁lightning	-3411
▁shoulders	-3412
▁sandwiches	-3413
▁interpreter	-3414
▁restaurants	-3415
acc	-3416
sle	-3417
?"""	-3418
acts	-3419
ners	-3420
ster	-3421
▁cam	-3422
▁opt	-3423
▁und	-3424
adays	-3425
apped	-3426
astic	-3427
ented	-3428
shirt	-3429
▁band	-3430
▁blew	-3431
▁chop	-3432
▁drew	-3433
▁gram	-3434
▁lean	-3435
▁priv	-3436
▁rely	-3437
▁repe	-3438
▁sons	-3439
▁toys	-3440
ancing	-3441
arrass	-3442
▁apart	-3443
▁deter	-3444
▁forty	-3445
▁hello	-3446
▁lines	-3447
▁stick	-3448
▁tower	-3449
itation	-3450
▁ladder	-3451
▁origin	-3452
▁pieces	-3453
▁record	-3454
▁writer	-3455
▁crossed	-3456
▁divorce	-3457
▁drawing	-3458
▁further	-3459
▁climbing	-3460
▁continue	-3461
▁contract	-3462
▁eighteen	-3463
▁invented	-3464
▁promises	-3465
▁restroom	-3466
▁solution	-3467
▁education	-3468
▁embarrass	-3469
▁professor	-3470
▁apologized	-3471
▁cigarettes	-3472
▁convenient	-3473
▁definitely	-3474
▁government	-3475
▁yourselves	-3476
▁handwriting	-3477
pa	-3478
iff	-3479
jam	-3480
▁bi	-3481
▁wo	-3482
ires	-3483
lace	-3484
lass	-3485
lied	-3486
scri	-3487
seas	-3488
▁mos	-3489
▁obe	-3490
iable	-3491
ledge	-3492
orses	-3493
▁bagg	-3494
▁cups	-3495
▁dete	-3496
▁lazy	-3497
▁nail	-3498
▁pack	-3499
▁rate	-3500
▁surv	-3501
▁thre	-3502
▁vase	-3503
▁worn	-3504
lished	-3505
▁among	-3506
▁badly	-3507
▁banan	-3508
▁bloom	-3509
▁grown	-3510
▁hated	-3511
▁humid	-3512
▁limit	-3513
▁lower	-3514
▁named	-3515
▁organ	-3516
▁postc	-3517
▁spite	-3518
▁worst	-3519
▁barely	-3520
▁carpet	-3521
▁deeply	-3522
▁escape	-3523
▁invite	-3524
▁kicked	-3525
▁opport	-3526
▁proper	-3527
▁suffer	-3528
▁belongs	-3529
▁disease	-3530
▁germany	-3531
▁manager	-3532
▁pencils	-3533
▁pockets	-3534
▁science	-3535
▁suspect	-3536
▁winning	-3537
according	-3538
▁attended	-3539
▁breaking	-3540
▁communic	-3541
▁fighting	-3542
▁followed	-3543
▁innocent	-3544
▁overseas	-3545
▁visiting	-3546
▁abandoned	-3547
▁certainly	-3548
▁introduce	-3549
▁photograph	-3550
▁disappeared	-3551
ka	-3552
bow	-3553
ime	-3554
ote	-3555
▁mi	-3556
bage	-3557
ides	-3558
iest	-3559
quit	-3560
ship	-3561
temp	-3562
ware	-3563
▁sep	-3564
▁sew	-3565
asons	-3566
chief	-3567
cious	-3568
cture	-3569
grees	-3570
hache	-3571
teria	-3572
▁boil	-3573
▁camp	-3574
▁decl	-3575
▁dess	-3576
▁farm	-3577
▁huge	-3578
▁okay	-3579
▁rare	-3580
▁thin	-3581
▁tire	-3582
▁twin	-3583
▁ways	-3584
▁wide	-3585
▁yard	-3586
▁baked	-3587
▁begun	-3588
▁candy	-3589
▁china	-3590
▁helps	-3591
▁rooms	-3592
▁songs	-3593
▁sunny	-3594
frankly	-3595
▁admire	-3596
▁comple	-3597
▁destro	-3598
▁giving	-3599
▁height	-3600
▁horses	-3601
▁novels	-3602
▁poison	-3603
▁repeat	-3604
▁violin	-3605
▁writes	-3606
▁checked	-3607
▁degrees	-3608
▁dessert	-3609
▁economy	-3610
▁engaged	-3611
▁fingers	-3612
▁knowing	-3613
▁smaller	-3614
▁absorbed	-3615
▁occurred	-3616
▁opportun	-3617
▁detective	-3618
▁following	-3619
▁invitation	-3620
▁newspapers	-3621
▁suggestion	-3622
box	-3623
gth	-3624
irm	-3625
▁ev	-3626
anta	-3627
ibly	-3628
tled	-3629
▁aim	-3630
▁arr	-3631
▁bal	-3632
▁est	-3633
▁ink	-3634
▁obs	-3635
▁wis	-3636
alous	-3637
ances	-3638
bling	-3639
jamas	-3640
velop	-3641
▁coin	-3642
▁curi	-3643
▁liar	-3644
▁oven	-3645
▁rose	-3646
▁sang	-3647
▁swam	-3648
▁vote	-3649
lasses	-3650
▁behav	-3651
▁equal	-3652
▁gives	-3653
▁puppy	-3654
▁scene	-3655
▁split	-3656
▁thick	-3657
underst	-3658
▁attack	-3659
▁entire	-3660
▁genius	-3661
▁intent	-3662
▁mobile	-3663
▁moving	-3664
▁stands	-3665
▁ability	-3666
▁blowing	-3667
▁courage	-3668
▁dancing	-3669
▁emergen	-3670
▁fortune	-3671
▁holding	-3672
▁impress	-3673
▁jealous	-3674
▁matters	-3675
▁pajamas	-3676
▁private	-3677
▁rabbits	-3678
▁reminds	-3679
▁skating	-3680
▁audience	-3681
▁intended	-3682
▁wherever	-3683
▁americans	-3684
▁customers	-3685
▁explained	-3686
▁interrupt	-3687
▁preparing	-3688
▁sunglasses	-3689
na	-3690
of	-3691
bly	-3692
hib	-3693
poc	-3694
tee	-3695
umn	-3696
▁cd	-3697
fish	-3698
hest	-3699
ians	-3700
illy	-3701
omat	-3702
yond	-3703
▁ram	-3704
▁toy	-3705
antly	-3706
doors	-3707
itive	-3708
ology	-3709
pping	-3710
▁beef	-3711
▁laid	-3712
▁meth	-3713
▁obey	-3714
▁upon	-3715
velope	-3716
▁brave	-3717
▁exist	-3718
▁honey	-3719
▁metal	-3720
▁offic	-3721
▁saved	-3722
▁share	-3723
▁space	-3724
▁state	-3725
▁steak	-3726
▁beyond	-3727
▁cloudy	-3728
▁design	-3729
▁memory	-3730
▁riding	-3731
▁saving	-3732
▁served	-3733
▁smiled	-3734
▁spends	-3735
▁theory	-3736
kerchief	-3737
▁baggage	-3738
▁bedroom	-3739
▁century	-3740
▁develop	-3741
▁dislike	-3742
▁falling	-3743
▁forever	-3744
▁mosquit	-3745
▁pickpoc	-3746
▁planned	-3747
▁behavior	-3748
▁envelope	-3749
▁eyesight	-3750
▁nowadays	-3751
▁patience	-3752
▁pleasure	-3753
▁cafeteria	-3754
▁computers	-3755
▁forgotten	-3756
▁handkerchief	-3757
gl	-3758
ata	-3759
bel	-3760
cha	-3761
imp	-3762
men	-3763
oph	-3764
sed	-3765
zer	-3766
ains	-3767
cope	-3768
fety	-3769
uest	-3770
▁anx	-3771
▁sys	-3772
hamed	-3773
ified	-3774
inary	-3775
itude	-3776
olded	-3777
vided	-3778
▁ages	-3779
▁anno	-3780
▁blan	-3781
▁hero	-3782
▁lion	-3783
▁rele	-3784
▁smar	-3785
▁soap	-3786
giving	-3787
minute	-3788
rently	-3789
▁artic	-3790
▁blind	-3791
▁guest	-3792
▁italy	-3793
▁mexic	-3794
▁north	-3795
▁rough	-3796
▁santa	-3797
▁shoot	-3798
▁spell	-3799
▁walks	-3800
ference	-3801
imistic	-3802
▁autumn	-3803
▁behave	-3804
▁calcul	-3805
▁colder	-3806
▁cooked	-3807
▁descri	-3808
▁distur	-3809
▁gained	-3810
▁murder	-3811
▁safety	-3812
▁strict	-3813
▁tomato	-3814
▁volume	-3815
▁wealth	-3816
▁appears	-3817
▁ashamed	-3818
▁cleaned	-3819
▁efforts	-3820
▁haircut	-3821
▁opening	-3822
▁service	-3823
▁exciting	-3824
▁incident	-3825
▁prepared	-3826
▁terribly	-3827
▁destroyed	-3828
▁expecting	-3829
▁knowledge	-3830
▁surprising	-3831
▁thanksgiving	-3832
ams	-3833
eaf	-3834
eal	-3835
gly	-3836
rat	-3837
rib	-3838
sue	-3839
tic	-3840
who	-3841
▁ky	-3842
▁ur	-3843
apid	-3844
bles	-3845
gent	-3846
ieve	-3847
lley	-3848
ores	-3849
tern	-3850
word	-3851
▁hon	-3852
▁mic	-3853
bborn	-3854
gener	-3855
hered	-3856
ially	-3857
iders	-3858
olves	-3859
tened	-3860
ulous	-3861
would	-3862
▁argu	-3863
▁cere	-3864
▁ease	-3865
▁jour	-3866
▁lack	-3867
▁pink	-3868
▁poet	-3869
▁qual	-3870
▁simp	-3871
▁spir	-3872
▁tent	-3873
▁valu	-3874
jected	-3875
▁alike	-3876
▁boots	-3877
▁chest	-3878
▁colds	-3879
▁ident	-3880
▁jokes	-3881
▁model	-3882
▁ramen	-3883
▁relig	-3884
▁sells	-3885
▁snake	-3886
▁snows	-3887
▁tough	-3888
▁windy	-3889
agement	-3890
without	-3891
▁announ	-3892
▁assist	-3893
▁chairs	-3894
▁employ	-3895
▁frozen	-3896
▁higher	-3897
▁invest	-3898
▁lasted	-3899
▁market	-3900
▁modern	-3901
▁pushed	-3902
▁smoked	-3903
▁volley	-3904
▁awfully	-3905
▁concern	-3906
▁consult	-3907
▁counter	-3908
▁delayed	-3909
▁grandpa	-3910
▁knocked	-3911
▁located	-3912
▁percent	-3913
▁retired	-3914
▁snowman	-3915
▁mosquito	-3916
▁spending	-3917
▁stubborn	-3918
▁emergency	-3919
▁gentleman	-3920
▁interview	-3921
▁perfectly	-3922
▁volleyball	-3923
eg	-3924
hi	-3925
ls	-3926
ma	-3927
tw	-3928
acy	-3929
law	-3930
two	-3931
ergy	-3932
ival	-3933
mbur	-3934
year	-3935
▁arg	-3936
▁bee	-3937
▁bom	-3938
▁dra	-3939
▁ess	-3940
▁fri	-3941
▁log	-3942
▁nin	-3943
▁pan	-3944
▁unf	-3945
asant	-3946
essed	-3947
ician	-3948
imate	-3949
inced	-3950
ipped	-3951
▁bare	-3952
▁brit	-3953
▁cult	-3954
▁ends	-3955
▁frog	-3956
▁infl	-3957
▁lips	-3958
▁pens	-3959
▁ugly	-3960
▁unif	-3961
▁actor	-3962
▁apply	-3963
▁awoke	-3964
▁disag	-3965
▁extra	-3966
▁illeg	-3967
▁liter	-3968
▁plate	-3969
▁sheep	-3970
▁shook	-3971
▁snack	-3972
▁south	-3973
▁turns	-3974
▁anyway	-3975
▁bitter	-3976
▁cancel	-3977
▁cheeks	-3978
▁closer	-3979
▁grapes	-3980
▁hambur	-3981
▁hidden	-3982
▁method	-3983
▁papers	-3984
▁paying	-3985
▁plants	-3986
▁resign	-3987
▁simply	-3988
▁system	-3989
▁anxious	-3990
▁burning	-3991
▁captain	-3992
▁dreamed	-3993
▁highest	-3994
▁insects	-3995
▁lecture	-3996
▁lessons	-3997
▁skipped	-3998
▁stories	-3999
▁willing	-4000
▁changing	-4001
▁compared	-4002
▁curtains	-4003
▁enjoying	-4004
▁entering	-4005
▁fluently	-4006
▁graduate	-4007
▁position	-4008
▁relation	-4009
▁shoulder	-4010
▁committed	-4011
▁convinced	-4012
▁misunderst	-4013
▁recognized	-4014
▁vegetarian	-4015
▁electricity	-4016
▁opportunity	-4017
ama	-4018
did	-4019
eah	-4020
eds	-4021
ggy	-4022
iot	-4023
zzy	-4024
aint	-4025
gust	-4026
hold	-4027
iche	-4028
know	-4029
vert	-4030
▁200	-4031
▁jun	-4032
▁odd	-4033
▁tat	-4034
▁web	-4035
itzer	-4036
never	-4037
ption	-4038
▁fold	-4039
▁rail	-4040
▁slee	-4041
▁span	-4042
▁unus	-4043
adians	-4044
iation	-4045
▁based	-4046
▁brief	-4047
▁earns	-4048
▁homes	-4049
▁lemon	-4050
▁owner	-4051
▁prote	-4052
▁purse	-4053
▁rapid	-4054
▁sweat	-4055
▁swims	-4056
▁trunk	-4057
▁twent	-4058
▁twins	-4059
hibited	-4060
ichever	-4061
mission	-4062
▁active	-4063
▁attemp	-4064
▁compet	-4065
▁damage	-4066
▁dollar	-4067
▁energy	-4068
▁income	-4069
▁nights	-4070
▁robbed	-4071
▁scient	-4072
▁slower	-4073
▁strike	-4074
▁attract	-4075
▁changes	-4076
▁complic	-4077
▁example	-4078
▁garbage	-4079
▁improve	-4080
▁planted	-4081
▁prepare	-4082
▁profile	-4083
▁reasons	-4084
▁selfish	-4085
▁studies	-4086
▁suppose	-4087
generally	-4088
itzerland	-4089
▁approach	-4090
▁carrying	-4091
▁confused	-4092
▁forecast	-4093
▁politics	-4094
▁buildings	-4095
▁canadians	-4096
▁committee	-4097
▁recognize	-4098
▁conference	-4099
▁prohibited	-4100
▁successful	-4101
▁personality	-4102
▁translation	-4103
▁professional	-4104
gy	-4105
oon	-4106
rop	-4107
wai	-4108
▁12	-4109
arks	-4110
asty	-4111
case	-4112
cket	-4113
from	-4114
iety	-4115
itam	-4116
keep	-4117
mail	-4118
nect	-4119
pers	-4120
they	-4121
zing	-4122
▁ank	-4123
▁ast	-4124
▁dar	-4125
▁fas	-4126
▁gam	-4127
▁hug	-4128
▁mix	-4129
▁ord	-4130
▁owe	-4131
acted	-4132
ardon	-4133
ended	-4134
esday	-4135
first	-4136
known	-4137
▁adop	-4138
▁belt	-4139
▁chew	-4140
▁cong	-4141
▁data	-4142
▁dorm	-4143
▁dust	-4144
▁flew	-4145
▁mold	-4146
▁pear	-4147
▁puzz	-4148
▁rise	-4149
▁sake	-4150
▁stro	-4151
▁sugg	-4152
▁unha	-4153
▁vict	-4154
angers	-4155
ograms	-4156
ongest	-4157
▁alice	-4158
▁ambul	-4159
▁bound	-4160
▁claus	-4161
▁exams	-4162
▁grade	-4163
▁influ	-4164
▁irrit	-4165
▁scary	-4166
▁stage	-4167
▁vitam	-4168
ization	-4169
▁access	-4170
▁barber	-4171
▁cousin	-4172
▁coward	-4173
▁fluent	-4174
▁junior	-4175
▁phoned	-4176
▁spider	-4177
▁stores	-4178
actually	-4179
▁absence	-4180
▁battery	-4181
▁blanket	-4182
▁bottles	-4183
▁cleared	-4184
▁concent	-4185
▁connect	-4186
▁details	-4187
▁foolish	-4188
▁relaxed	-4189
▁request	-4190
▁scolded	-4191
▁silence	-4192
▁smarter	-4193
▁teaches	-4194
▁travels	-4195
▁whoever	-4196
▁arriving	-4197
▁chairman	-4198
▁hesitate	-4199
▁increase	-4200
▁narrowly	-4201
▁opinions	-4202
▁stealing	-4203
▁textbook	-4204
▁thoughts	-4205
▁traveler	-4206
▁admission	-4207
▁kilograms	-4208
▁postponed	-4209
▁suffering	-4210
▁suggested	-4211
▁classmates	-4212
▁complained	-4213
▁exceptions	-4214
▁earthquakes	-4215
▁experienced	-4216
▁pickpockets	-4217
sm	-4218
aka	-4219
nel	-4220
oto	-4221
und	-4222
▁os	-4223
aire	-4224
glar	-4225
mony	-4226
reen	-4227
▁ack	-4228
▁enc	-4229
▁gum	-4230
▁nut	-4231
▁pil	-4232
▁rat	-4233
▁ren	-4234
▁rom	-4235
▁tap	-4236
▁wit	-4237
asing	-4238
ators	-4239
bsite	-4240
eding	-4241
icker	-4242
icted	-4243
illed	-4244
minal	-4245
order	-4246
orted	-4247
ratul	-4248
slept	-4249
stick	-4250
▁bake	-4251
▁cele	-4252
▁deaf	-4253
▁fare	-4254
▁jobs	-4255
▁lugg	-4256
▁nons	-4257
▁owns	-4258
▁pace	-4259
▁rode	-4260
▁rome	-4261
▁spin	-4262
▁spot	-4263
▁surf	-4264
▁surr	-4265
▁tied	-4266
▁visa	-4267
▁weap	-4268
▁whis	-4269
▁wrap	-4270
ddenly	-4271
having	-4272
idence	-4273
issors	-4274
weight	-4275
▁buses	-4276
▁cloth	-4277
▁const	-4278
▁curry	-4279
▁field	-4280
▁issue	-4281
▁kyoto	-4282
▁memor	-4283
▁occas	-4284
▁pages	-4285
▁reads	-4286
▁resem	-4287
▁separ	-4288
▁shape	-4289
▁shout	-4290
▁spicy	-4291
▁uncom	-4292
ghtened	-4293
▁accent	-4294
▁acknow	-4295
▁action	-4296
▁advant	-4297
▁applic	-4298
▁charac	-4299
▁closet	-4300
▁determ	-4301
▁drawer	-4302
▁expert	-4303
▁habits	-4304
▁pillow	-4305
▁safely	-4306
▁smooth	-4307
▁struck	-4308
▁upside	-4309
▁wolves	-4310
aughters	-4311
suddenly	-4312
whenever	-4313
▁burglar	-4314
▁camping	-4315
▁convers	-4316
▁curious	-4317
▁hanging	-4318
▁however	-4319
▁hurried	-4320
▁instant	-4321
▁lottery	-4322
▁luggage	-4323
▁manners	-4324
▁pointed	-4325
▁pronoun	-4326
▁putting	-4327
▁selling	-4328
▁settled	-4329
▁spiders	-4330
▁spirits	-4331
▁swimmer	-4332
▁useless	-4333
▁website	-4334
yesterday	-4335
▁cheerful	-4336
▁chickens	-4337
▁discount	-4338
▁examined	-4339
▁nonsense	-4340
▁password	-4341
▁prisoner	-4342
▁scissors	-4343
▁weekends	-4344
▁ambulance	-4345
▁congratul	-4346
▁discussed	-4347
▁operation	-4348
▁overslept	-4349
▁published	-4350
▁squirrels	-4351
▁whichever	-4352
▁discovered	-4353
▁complicated	-4354
rm	-4355
sy	-4356
ara	-4357
azz	-4358
boy	-4359
que	-4360
soc	-4361
wri	-4362
▁13	-4363
alse	-4364
cons	-4365
ency	-4366
iron	-4367
lies	-4368
rate	-4369
rots	-4370
uted	-4371
vere	-4372
vide	-4373
waii	-4374
yeah	-4375
▁300	-4376
▁asp	-4377
▁bug	-4378
▁dev	-4379
▁err	-4380
▁ome	-4381
▁pet	-4382
▁rev	-4383
arily	-4384
erved	-4385
iment	-4386
▁army	-4387
▁cows	-4388
▁crit	-4389
▁harm	-4390
▁july	-4391
▁knee	-4392
▁kore	-4393
▁mild	-4394
▁port	-4395
▁sank	-4396
▁sixt	-4397
▁tick	-4398
▁trad	-4399
▁uses	-4400
▁wolf	-4401
ground	-4402
handed	-4403
though	-4404
▁adult	-4405
▁afric	-4406
▁anger	-4407
▁ankle	-4408
▁brain	-4409
▁coins	-4410
▁cough	-4411
▁disco	-4412
▁facts	-4413
▁false	-4414
▁frequ	-4415
▁guide	-4416
▁hired	-4417
▁incor	-4418
▁refle	-4419
▁stock	-4420
▁trash	-4421
▁whale	-4422
iculous	-4423
▁assume	-4424
▁babies	-4425
▁fairly	-4426
▁hawaii	-4427
▁ignore	-4428
▁makeup	-4429
▁omelet	-4430
▁pardon	-4431
▁purcha	-4432
▁regard	-4433
▁shirts	-4434
▁sunset	-4435
ironment	-4436
▁actions	-4437
▁affairs	-4438
▁amazing	-4439
▁article	-4440
▁beating	-4441
▁breathe	-4442
▁disturb	-4443
▁elected	-4444
▁growing	-4445
▁hunting	-4446
▁illegal	-4447
▁medical	-4448
▁officer	-4449
▁players	-4450
▁recover	-4451
▁refrain	-4452
▁spanish	-4453
▁turning	-4454
▁accompan	-4455
▁achieved	-4456
▁attacked	-4457
▁fountain	-4458
▁insisted	-4459
▁inviting	-4460
▁necklace	-4461
▁presence	-4462
▁bothering	-4463
▁departure	-4464
▁intention	-4465
▁ourselves	-4466
▁suitcases	-4467
▁appearance	-4468
▁collecting	-4469
▁frightened	-4470
▁smartphone	-4471
▁themselves	-4472
▁communicate	-4473
▁environment	-4474
ok	-4475
ald	-4476
cip	-4477
emp	-4478
exp	-4479
ify	-4480
ium	-4481
▁lu	-4482
▁tu	-4483
anes	-4484
kers	-4485
next	-4486
rove	-4487
wers	-4488
▁cit	-4489
▁jog	-4490
▁pou	-4491
▁sou	-4492
▁tor	-4493
cking	-4494
iring	-4495
ounds	-4496
▁bone	-4497
▁cave	-4498
▁chem	-4499
▁dump	-4500
▁edge	-4501
▁febr	-4502
▁file	-4503
▁gain	-4504
▁grab	-4505
▁jazz	-4506
▁junk	-4507
▁poll	-4508
itched	-4509
itting	-4510
person	-4511
▁accur	-4512
▁added	-4513
▁bears	-4514
▁broad	-4515
▁compe	-4516
▁daily	-4517
▁dizzy	-4518
▁dried	-4519
▁drove	-4520
▁eater	-4521
▁flash	-4522
▁flour	-4523
▁froze	-4524
▁guard	-4525
▁horri	-4526
▁idiot	-4527
▁india	-4528
▁local	-4529
▁loose	-4530
▁moldy	-4531
▁osaka	-4532
▁pilot	-4533
▁plant	-4534
▁pregn	-4535
▁sauce	-4536
▁shock	-4537
▁sixty	-4538
▁tells	-4539
▁unexp	-4540
▁advert	-4541
▁bucket	-4542
▁drives	-4543
▁explos	-4544
▁garage	-4545
▁guests	-4546
▁hammer	-4547
▁hugged	-4548
▁lesson	-4549
▁rented	-4550
▁retire	-4551
▁wooden	-4552
everyone	-4553
▁adopted	-4554
▁answers	-4555
▁carrots	-4556
▁ceiling	-4557
▁constru	-4558
▁grabbed	-4559
▁granted	-4560
▁interfe	-4561
▁jogging	-4562
▁keeping	-4563
▁longest	-4564
▁mailbox	-4565
▁package	-4566
▁perform	-4567
▁physics	-4568
▁princip	-4569
▁printer	-4570
▁receive	-4571
▁regular	-4572
▁unhappy	-4573
▁unusual	-4574
▁various	-4575
▁ceremony	-4576
▁counting	-4577
▁crossing	-4578
▁february	-4579
▁forehead	-4580
▁homesick	-4581
▁original	-4582
▁religion	-4583
▁wondered	-4584
▁daughters	-4585
▁direction	-4586
▁incorrect	-4587
▁increased	-4588
▁permitted	-4589
▁resembles	-4590
▁strangers	-4591
▁assistance	-4592
▁downstairs	-4593
▁introduced	-4594
▁optimistic	-4595
▁overweight	-4596
▁permission	-4597
▁ridiculous	-4598
▁embarrassed	-4599
▁necessarily	-4600
▁responsible	-4601
▁switzerland	-4602
▁responsibility	-4603
tr	-4604
!""	-4605
.""	-4606
ami	-4607
bet	-4608
ems	-4609
ero	-4610
mom	-4611
rer	-4612
ron	-4613
too	-4614
tub	-4615
zed	-4616
▁oh	-4617
▁ow	-4618
back	-4619
ened	-4620
fers	-4621
have	-4622
lymp	-4623
rets	-4624
seen	-4625
town	-4626
ucky	-4627
uses	-4628
wise	-4629
▁ble	-4630
▁bud	-4631
▁cot	-4632
▁gat	-4633
▁lab	-4634
▁ric	-4635
▁tit	-4636
▁ufo	-4637
▁uns	-4638
▁zip	-4639
0,000	-4640
agers	-4641
antic	-4642
atest	-4643
clear	-4644
eated	-4645
igner	-4646
ilton	-4647
ppery	-4648
speak	-4649
▁atom	-4650
▁bump	-4651
▁burn	-4652
▁crop	-4653
▁east	-4654
▁fest	-4655
▁firm	-4656
▁itch	-4657
▁kara	-4658
▁menu	-4659
▁nuts	-4660
▁pand	-4661
▁shoe	-4662
▁stat	-4663
▁trap	-4664
acking	-4665
prints	-4666
verted	-4667
▁appet	-4668
▁champ	-4669
▁citiz	-4670
▁cloud	-4671
▁dozen	-4672
▁fifth	-4673
▁grows	-4674
▁holds	-4675
▁honor	-4676
▁horiz	-4677
▁humor	-4678
▁olymp	-4679
▁picky	-4680
▁prime	-4681
▁roads	-4682
▁sings	-4683
▁stamp	-4684
▁stove	-4685
▁verge	-4686
▁10,000	-4687
▁acting	-4688
▁batter	-4689
▁colors	-4690
▁cooper	-4691
▁delete	-4692
▁denied	-4693
▁disney	-4694
▁grades	-4695
▁heater	-4696
▁itself	-4697
▁kitten	-4698
▁losing	-4699
▁online	-4700
▁permit	-4701
▁photos	-4702
▁planes	-4703
▁poured	-4704
▁rising	-4705
▁runner	-4706
▁silver	-4707
▁social	-4708
▁tattoo	-4709
▁actress	-4710
▁admired	-4711
▁applied	-4712
▁arguing	-4713
▁arrange	-4714
▁barking	-4715
▁carries	-4716
▁climate	-4717
▁contest	-4718
▁crashed	-4719
▁doctors	-4720
▁drowned	-4721
▁england	-4722
▁interse	-4723
▁italian	-4724
▁karaoke	-4725
▁lending	-4726
▁numbers	-4727
▁quality	-4728
▁regards	-4729
▁subscri	-4730
▁towards	-4731
▁trained	-4732
▁acquired	-4733
▁disagree	-4734
▁election	-4735
▁greatest	-4736
▁laughter	-4737
▁musician	-4738
▁national	-4739
▁overtime	-4740
▁particip	-4741
▁potatoes	-4742
▁properly	-4743
▁slippery	-4744
▁valuable	-4745
▁addressed	-4746
▁cellphone	-4747
▁elephants	-4748
▁interfere	-4749
▁persuaded	-4750
▁blackboard	-4751
▁complaints	-4752
▁confidence	-4753
▁eventually	-4754
▁experiment	-4755
▁foreigners	-4756
▁surrounded	-4757
▁unexpected	-4758
▁understands	-4759
▁conversation	-4760
▁uncomfortable	-4761
sk	-4762
?""	-4763
bon	-4764
chn	-4765
een	-4766
fin	-4767
fto	-4768
gar	-4769
het	-4770
ido	-4771
iti	-4772
mel	-4773
nam	-4774
oal	-4775
ses	-4776
uct	-4777
!"""	-4778
gery	-4779
ieth	-4780
ingu	-4781
iped	-4782
orms	-4783
osen	-4784
spec	-4785
vard	-4786
▁aid	-4787
▁ang	-4788
▁fee	-4789
▁jan	-4790
▁lid	-4791
▁lip	-4792
▁mys	-4793
afood	-4794
elled	-4795
epend	-4796
erves	-4797
place	-4798
usion	-4799
write	-4800
▁bees	-4801
▁circ	-4802
▁dawn	-4803
▁dish	-4804
▁earn	-4805
▁fits	-4806
▁flag	-4807
▁koal	-4808
▁link	-4809
▁mark	-4810
▁pean	-4811
▁pity	-4812
▁pork	-4813
▁sear	-4814
▁shad	-4815
▁term	-4816
▁zero	-4817
anding	-4818
before	-4819
ighted	-4820
ivered	-4821
▁beans	-4822
▁coach	-4823
▁crash	-4824
▁espec	-4825
▁faces	-4826
▁final	-4827
▁goods	-4828
▁lacks	-4829
▁lefto	-4830
▁nails	-4831
▁naked	-4832
▁piggy	-4833
▁pitch	-4834
▁poems	-4835
▁schol	-4836
▁shave	-4837
▁shine	-4838
▁silly	-4839
▁skill	-4840
▁stead	-4841
▁veter	-4842
achache	-4843
arently	-4844
ouraged	-4845
▁adults	-4846
▁africa	-4847
▁amazed	-4848
▁assign	-4849
▁atomic	-4850
▁brings	-4851
▁chosen	-4852
▁darker	-4853
▁effect	-4854
▁fellow	-4855
▁formed	-4856
▁garlic	-4857
▁instru	-4858
▁loudly	-4859
▁mexico	-4860
▁oldest	-4861
▁onions	-4862
▁points	-4863
▁policy	-4864
▁racket	-4865
▁refres	-4866
▁remove	-4867
▁rushed	-4868
▁solved	-4869
▁suspic	-4870
▁talent	-4871
▁turkey	-4872
▁weighs	-4873
▁whales	-4874
▁automat	-4875
▁bananas	-4876
▁billion	-4877
▁blocked	-4878
▁comment	-4879
▁culture	-4880
▁glanced	-4881
▁grammar	-4882
▁harvard	-4883
▁heavily	-4884
▁horizon	-4885
▁january	-4886
▁killing	-4887
▁leather	-4888
▁mystery	-4889
▁prefers	-4890
▁pressed	-4891
▁seafood	-4892
▁shocked	-4893
▁spilled	-4894
▁surgery	-4895
▁thunder	-4896
▁tourist	-4897
▁unlucky	-4898
▁watches	-4899
▁wounded	-4900
▁appetite	-4901
▁elephant	-4902
▁expelled	-4903
▁festival	-4904
▁gathered	-4905
▁hometown	-4906
▁independ	-4907
▁internet	-4908
▁postcard	-4909
▁pregnant	-4910
▁relative	-4911
▁research	-4912
▁searched	-4913
▁violence	-4914
▁watermel	-4915
▁acknowled	-4916
▁breathing	-4917
▁completed	-4918
▁delivered	-4919
▁explosion	-4920
▁irritated	-4921
▁mushrooms	-4922
▁pronounce	-4923
▁accomplish	-4924
▁attractive	-4925
▁disneyland	-4926
▁engagement	-4927
▁especially	-4928
▁importance	-4929
▁accompanied	-4930
▁stomachache	-4931
io	-4932
bum	-4933
fly	-4934
rup	-4935
unc	-4936
ung	-4937
▁ya	-4938
burn	-4939
cony	-4940
easy	-4941
iece	-4942
llen	-4943
made	-4944
oted	-4945
oved	-4946
unte	-4947
yard	-4948
▁bun	-4949
▁lin	-4950
▁pea	-4951
▁rug	-4952
▁sne	-4953
▁tha	-4954
▁tid	-4955
▁wow	-4956
achel	-4957
aghet	-4958
aries	-4959
kaido	-4960
ppers	-4961
▁astr	-4962
▁dogh	-4963
▁dove	-4964
▁exit	-4965
▁hats	-4966
▁imit	-4967
▁jail	-4968
▁loan	-4969
▁lung	-4970
▁neat	-4971
▁peel	-4972
▁plat	-4973
▁pour	-4974
▁pred	-4975
▁pump	-4976
▁ripe	-4977
▁west	-4978
employ	-4979
itions	-4980
ousers	-4981
please	-4982
rected	-4983
rowave	-4984
ushing	-4985
▁2,000	-4986
▁album	-4987
▁ballp	-4988
▁beard	-4989
▁burnt	-4990
▁chips	-4991
▁conce	-4992
▁eager	-4993
▁elbow	-4994
▁grate	-4995
▁impat	-4996
▁magic	-4997
▁mater	-4998
▁mayor	-4999
▁occup	-5000
▁parks	-5001
▁punct	-5002
▁refer	-5003
▁shame	-5004
▁stren	-5005
▁techn	-5006
▁toast	-5007
▁total	-5008
▁track	-5009
▁trade	-5010
aghetti	-5011
ficient	-5012
▁bachel	-5013
▁boiled	-5014
▁campus	-5015
▁cities	-5016
▁doubts	-5017
▁hilton	-5018
▁melted	-5019
▁recent	-5020
▁reduce	-5021
▁scarce	-5022
▁shadow	-5023
▁stared	-5024
▁stress	-5025
▁teleph	-5026
▁urgent	-5027
although	-5028
▁anytime	-5029
▁balcony	-5030
▁boiling	-5031
▁closely	-5032
▁cousins	-5033
▁general	-5034
▁helpful	-5035
▁pianist	-5036
▁picking	-5037
▁plastic	-5038
▁pronunc	-5039
▁quarter	-5040
▁scratch	-5041
▁volunte	-5042
▁weapons	-5043
▁bleeding	-5044
▁doghouse	-5045
▁horrible	-5046
▁improved	-5047
▁investig	-5048
▁knocking	-5049
▁memories	-5050
▁platform	-5051
▁pleasant	-5052
▁possibly	-5053
▁precious	-5054
▁trousers	-5055
▁unlocked	-5056
▁advantage	-5057
▁classical	-5058
▁magazines	-5059
▁microwave	-5060
▁political	-5061
▁searching	-5062
▁secretary	-5063
▁spaghetti	-5064
▁subscribe	-5065
▁calculator	-5066
▁determined	-5067
▁discussion	-5068
▁impression	-5069
▁literature	-5070
▁application	-5071
▁possibility	-5072
▁remembering	-5073
▁acknowledged	-5074
▁intersection	-5075
▁preparations	-5076
▁relationship	-5077
▁pronunciation	-5078
▁understanding	-5079
1.	-5080
amm	-5081
cue	-5082
igr	-5083
iod	-5084
ipt	-5085
jud	-5086
nal	-5087
pha	-5088
sty	-5089
thy	-5090
ancy	-5091
coat	-5092
coln	-5093
eral	-5094
iter	-5095
mark	-5096
oner	-5097
ophy	-5098
ures	-5099
▁anc	-5100
▁dig	-5101
▁fax	-5102
▁gro	-5103
▁hok	-5104
▁imm	-5105
▁neg	-5106
▁pos	-5107
▁ret	-5108
▁rob	-5109
▁rot	-5110
▁row	-5111
▁usa	-5112
adium	-5113
agger	-5114
allel	-5115
allow	-5116
check	-5117
ength	-5118
house	-5119
isten	-5120
lling	-5121
ulted	-5122
▁ache	-5123
▁anti	-5124
▁bomb	-5125
▁code	-5126
▁cops	-5127
▁dare	-5128
▁debt	-5129
▁drag	-5130
▁envy	-5131
▁fant	-5132
▁host	-5133
▁kite	-5134
▁mamm	-5135
▁pets	-5136
▁pray	-5137
▁rash	-5138
▁rush	-5139
▁sink	-5140
▁site	-5141
▁snee	-5142
▁stew	-5143
▁tune	-5144
▁yawn	-5145
blings	-5146
entine	-5147
inated	-5148
inting	-5149
phabet	-5150
racted	-5151
sitive	-5152
▁aches	-5153
▁aside	-5154
▁assoc	-5155
▁backs	-5156
▁concl	-5157
▁dated	-5158
▁drugs	-5159
▁grave	-5160
▁hopes	-5161
▁instr	-5162
▁itchy	-5163
▁march	-5164
▁muggy	-5165
▁parts	-5166
▁reput	-5167
▁tends	-5168
▁thumb	-5169
▁valid	-5170
▁wheel	-5171
▁wound	-5172
finally	-5173
ilities	-5174
▁astron	-5175
▁banana	-5176
▁bumped	-5177
▁celebr	-5178
▁circle	-5179
▁critic	-5180
▁dumped	-5181
▁fasten	-5182
▁fixing	-5183
▁glance	-5184
▁highly	-5185
▁hunger	-5186
▁indust	-5187
▁nature	-5188
▁needle	-5189
▁period	-5190
▁reluct	-5191
▁rescue	-5192
▁resist	-5193
▁richer	-5194
▁rolled	-5195
▁seated	-5196
▁sewing	-5197
▁shovel	-5198
▁soaked	-5199
▁switch	-5200
▁uncons	-5201
▁warned	-5202
▁wishes	-5203
▁ancient	-5204
▁annoyed	-5205
▁bathtub	-5206
▁catches	-5207
▁content	-5208
▁cracked	-5209
▁deliver	-5210
▁everest	-5211
▁exagger	-5212
▁excuses	-5213
▁founded	-5214
▁grandma	-5215
▁install	-5216
▁lincoln	-5217
▁nowhere	-5218
▁nuclear	-5219
▁provide	-5220
▁rainbow	-5221
▁receipt	-5222
▁related	-5223
▁removed	-5224
▁reserve	-5225
▁section	-5226
▁sending	-5227
▁shining	-5228
▁showing	-5229
▁sixteen	-5230
▁slipped	-5231
▁somehow	-5232
▁stadium	-5233
▁symptom	-5234
▁vitamin	-5235
▁wealthy	-5236
▁witness	-5237
▁alphabet	-5238
▁backyard	-5239
▁brightly	-5240
▁gambling	-5241
▁goldfish	-5242
▁grateful	-5243
▁hokkaido	-5244
▁occasion	-5245
▁ordinary	-5246
▁outdoors	-5247
▁parallel	-5248
▁persuade	-5249
▁rejected	-5250
▁released	-5251
▁siblings	-5252
▁slightly	-5253
▁strength	-5254
▁tourists	-5255
▁transfer	-5256
▁unemploy	-5257
▁briefcase	-5258
▁chopstick	-5259
▁confident	-5260
▁documents	-5261
▁generally	-5262
▁impatient	-5263
▁impressed	-5264
▁leftovers	-5265
▁postcards	-5266
▁refreshed	-5267
▁scientist	-5268
▁seventeen	-5269
▁thousands	-5270
▁tradition	-5271
▁treatment	-5272
▁twentieth	-5273
▁valentine	-5274
▁wondering	-5275
▁instrument	-5276
▁reputation	-5277
▁strawberry	-5278
▁approaching	-5279
▁concentrate	-5280
▁considering	-5281
▁imagination	-5282
▁unconscious	-5283
▁international	-5284
lo	-5285
dom	-5286
ims	-5287
iny	-5288
lly	-5289
ony	-5290
oys	-5291
urd	-5292
▁ol	-5293
ague	-5294
anch	-5295
asso	-5296
aves	-5297
azil	-5298
cing	-5299
four	-5300
free	-5301
izes	-5302
pack	-5303
uled	-5304
umed	-5305
▁ath	-5306
▁lux	-5307
▁pha	-5308
▁spr	-5309
▁tip	-5310
bbies	-5311
child	-5312
dding	-5313
eable	-5314
esome	-5315
fered	-5316
iated	-5317
impse	-5318
mbled	-5319
nding	-5320
right	-5321
▁abol	-5322
▁alto	-5323
▁appo	-5324
▁asia	-5325
▁bald	-5326
▁barg	-5327
▁comb	-5328
▁craw	-5329
▁deer	-5330
▁dumb	-5331
▁emot	-5332
▁item	-5333
▁phil	-5334
▁risk	-5335
▁russ	-5336
▁sens	-5337
▁silk	-5338
▁skip	-5339
▁toot	-5340
astest	-5341
aughty	-5342
ctions	-5343
imples	-5344
mbered	-5345
oscope	-5346
ouched	-5347
ources	-5348
sooner	-5349
urance	-5350
▁babys	-5351
▁bowed	-5352
▁boxes	-5353
▁brand	-5354
▁chill	-5355
▁chose	-5356
▁court	-5357
▁crack	-5358
▁depos	-5359
▁disgu	-5360
▁foods	-5361
▁foxes	-5362
▁handy	-5363
▁helme	-5364
▁inten	-5365
▁jewel	-5366
▁kilos	-5367
▁loses	-5368
▁meter	-5369
▁nause	-5370
▁notes	-5371
▁opens	-5372
▁pasta	-5373
▁proof	-5374
▁quote	-5375
▁rocks	-5376
▁score	-5377
▁seeds	-5378
▁serve	-5379
▁shade	-5380
▁sides	-5381
▁stain	-5382
▁stink	-5383
▁tests	-5384
▁topic	-5385
▁unmar	-5386
▁whist	-5387
inarian	-5388
▁absurd	-5389
▁attrib	-5390
▁august	-5391
▁beware	-5392
▁booked	-5393
▁branch	-5394
▁brazil	-5395
▁calmed	-5396
▁custom	-5397
▁defend	-5398
▁double	-5399
▁eighth	-5400
▁enjoys	-5401
▁events	-5402
▁incred	-5403
▁korean	-5404
▁latest	-5405
▁length	-5406
▁manage	-5407
▁packed	-5408
▁puzzle	-5409
▁remark	-5410
▁remote	-5411
▁salmon	-5412
▁smokes	-5413
▁string	-5414
▁strugg	-5415
▁tasted	-5416
recently	-5417
▁airmail	-5418
▁awesome	-5419
▁bedtime	-5420
▁complex	-5421
▁contain	-5422
▁demands	-5423
▁divided	-5424
▁employe	-5425
▁fainted	-5426
▁fastest	-5427
▁glimpse	-5428
▁greeted	-5429
▁harvest	-5430
▁hobbies	-5431
▁include	-5432
▁indoors	-5433
▁journal	-5434
▁naughty	-5435
▁picasso	-5436
▁prescri	-5437
▁prevent	-5438
▁protect	-5439
▁rapidly	-5440
▁shelves	-5441
▁sounded	-5442
▁surface	-5443
▁swallow	-5444
▁sympath	-5445
▁wasting	-5446
▁beginner	-5447
▁champion	-5448
▁comments	-5449
▁criminal	-5450
▁deadline	-5451
▁december	-5452
▁homeless	-5453
▁interrup	-5454
▁knitting	-5455
▁memorize	-5456
▁patients	-5457
▁physical	-5458
▁provided	-5459
▁punctual	-5460
▁purchase	-5461
▁reliable	-5462
▁shooting	-5463
▁software	-5464
▁starving	-5465
▁threaten	-5466
▁throwing	-5467
▁treasure	-5468
▁alcoholic	-5469
▁allergies	-5470
▁answering	-5471
▁appointed	-5472
▁confessed	-5473
▁exception	-5474
▁influence	-5475
▁insurance	-5476
▁obviously	-5477
▁principal	-5478
▁resources	-5479
▁toothache	-5480
▁unmarried	-5481
▁altogether	-5482
▁chopsticks	-5483
▁conditions	-5484
▁connection	-5485
▁disappoint	-5486
▁politician	-5487
▁reasonable	-5488
▁remembered	-5489
▁telephoned	-5490
▁composition	-5491
▁construction	-5492
▁veterinarian	-5493
▁automatically	-5494
fu	-5495
li	-5496
uk	-5497
xy	-5498
aff	-5499
aid	-5500
amb	-5501
dad	-5502
has	-5503
hel	-5504
hew	-5505
his	-5506
lig	-5507
ras	-5508
see	-5509
ups	-5510
urt	-5511
wor	-5512
ycl	-5513
▁ge	-5514
▁gi	-5515
arin	-5516
chan	-5517
corn	-5518
does	-5519
five	-5520
geon	-5521
long	-5522
mons	-5523
name	-5524
orns	-5525
wait	-5526
your	-5527
▁cla	-5528
▁fan	-5529
▁gri	-5530
▁hay	-5531
▁jet	-5532
▁ket	-5533
▁mas	-5534
▁nag	-5535
▁pac	-5536
▁pra	-5537
▁sca	-5538
▁sip	-5539
▁ton	-5540
▁tun	-5541
▁wax	-5542
▁wra	-5543
arted	-5544
cloth	-5545
enery	-5546
ering	-5547
ghter	-5548
going	-5549
great	-5550
hello	-5551
ighed	-5552
istry	-5553
leave	-5554
obile	-5555
outed	-5556
rious	-5557
shine	-5558
table	-5559
urity	-5560
▁chat	-5561
▁corn	-5562
▁cure	-5563
▁dipl	-5564
▁disp	-5565
▁evid	-5566
▁fart	-5567
▁fuss	-5568
▁hire	-5569
▁inde	-5570
▁issu	-5571
▁liqu	-5572
▁mars	-5573
▁mere	-5574
▁pipe	-5575
▁task	-5576
▁tofu	-5577
▁tool	-5578
▁torn	-5579
▁wedn	-5580
during	-5581
fected	-5582
isions	-5583
osophy	-5584
▁3,000	-5585
▁aimed	-5586
▁argue	-5587
▁attic	-5588
▁awful	-5589
▁balls	-5590
▁barks	-5591
▁burns	-5592
▁cakes	-5593
▁chief	-5594
▁consc	-5595
▁deals	-5596
▁estab	-5597
▁feeds	-5598
▁fried	-5599
▁gifts	-5600
▁image	-5601
▁level	-5602
▁lobby	-5603
▁motiv	-5604
▁oblig	-5605
▁pharm	-5606
▁pumpk	-5607
▁shops	-5608
▁skate	-5609
▁spoon	-5610
▁stays	-5611
▁steps	-5612
▁taxes	-5613
▁tires	-5614
▁trips	-5615
▁walls	-5616
▁wiped	-5617
inguish	-5618
nothing	-5619
ologist	-5620
ritious	-5621
▁advise	-5622
▁artist	-5623
▁atmosp	-5624
▁buried	-5625
▁candle	-5626
▁collea	-5627
▁cooker	-5628
▁copies	-5629
▁export	-5630
▁gather	-5631
▁hiking	-5632
▁humans	-5633
▁includ	-5634
▁invent	-5635
▁joined	-5636
▁leaned	-5637
▁monkey	-5638
▁nation	-5639
▁ninety	-5640
▁pounds	-5641
▁recall	-5642
▁refuse	-5643
▁relief	-5644
▁rotten	-5645
▁screen	-5646
▁senior	-5647
▁sheets	-5648
▁sleeve	-5649
▁stream	-5650
▁uneasy	-5651
children	-5652
▁achieve	-5653
▁babysit	-5654
▁balloon	-5655
▁british	-5656
▁channel	-5657
▁closing	-5658
▁dresses	-5659
▁farther	-5660
▁halfway	-5661
▁heavier	-5662
▁ignored	-5663
▁intense	-5664
▁journey	-5665
▁kissing	-5666
▁landing	-5667
▁majored	-5668
▁monthly	-5669
▁observe	-5670
▁popcorn	-5671
▁product	-5672
▁remains	-5673
▁scenery	-5674
▁seconds	-5675
▁shouted	-5676
▁springs	-5677
▁stepped	-5678
▁uniform	-5679
▁unknown	-5680
▁variety	-5681
▁vending	-5682
▁wanting	-5683
▁warming	-5684
▁accurate	-5685
▁addition	-5686
▁argument	-5687
▁attitude	-5688
▁cheating	-5689
▁clothing	-5690
▁convince	-5691
▁delicate	-5692
▁estimate	-5693
▁material	-5694
▁normally	-5695
▁postpone	-5696
▁previous	-5697
▁products	-5698
▁reserved	-5699
▁sickness	-5700
▁suitable	-5701
▁survived	-5702
▁tomatoes	-5703
▁uniforms	-5704
▁watering	-5705
▁worrying	-5706
apparently	-5707
▁airplanes	-5708
▁attempted	-5709
▁ballpoint	-5710
▁batteries	-5711
▁broadcast	-5712
▁character	-5713
▁chemistry	-5714
▁classmate	-5715
▁collected	-5716
▁corrected	-5717
▁elevators	-5718
▁fantastic	-5719
▁hamburger	-5720
▁horoscope	-5721
▁requested	-5722
▁sensitive	-5723
▁suspended	-5724
▁wednesday	-5725
▁graduation	-5726
▁hamburgers	-5727
▁medication	-5728
▁nutritious	-5729
▁philosophy	-5730
▁suspicious	-5731
▁conditioner	-5732
▁cooperation	-5733
▁distinguish	-5734
▁independent	-5735
▁difficulties	-5736
▁expectations	-5737
2.	-5738
eb	-5739
hy	-5740
po	-5741
00?	-5742
30?	-5743
asp	-5744
bag	-5745
put	-5746
ria	-5747
son	-5748
ums	-5749
wow	-5750
xop	-5751
▁ii	-5752
▁pi	-5753
acus	-5754
ames	-5755
cake	-5756
cano	-5757
enth	-5758
erry	-5759
ivil	-5760
male	-5761
mbol	-5762
mpoo	-5763
oard	-5764
open	-5765
orch	-5766
orge	-5767
ownt	-5768
pass	-5769
phew	-5770
rise	-5771
ssed	-5772
sure	-5773
take	-5774
tems	-5775
ties	-5776
wife	-5777
▁30.	-5778
▁bub	-5779
▁din	-5780
▁joy	-5781
▁lat	-5782
▁lif	-5783
▁oys	-5784
▁phr	-5785
▁rou	-5786
▁shr	-5787
▁sir	-5788
▁tar	-5789
▁tow	-5790
▁wal	-5791
acity	-5792
anged	-5793
comed	-5794
derer	-5795
enses	-5796
irmed	-5797
oking	-5798
oline	-5799
ously	-5800
urian	-5801
▁betr	-5802
▁cage	-5803
▁cock	-5804
▁damp	-5805
▁deli	-5806
▁diag	-5807
▁dies	-5808
▁evil	-5809
▁fake	-5810
▁forb	-5811
▁fork	-5812
▁fund	-5813
▁goat	-5814
▁gray	-5815
▁hers	-5816
▁hook	-5817
▁horn	-5818
▁inch	-5819
▁kick	-5820
▁lawn	-5821
▁maid	-5822
▁meas	-5823
▁mice	-5824
▁ours	-5825
▁pier	-5826
▁puts	-5827
▁root	-5828
▁sits	-5829
▁soul	-5830
▁teen	-5831
▁thri	-5832
▁tidy	-5833
▁tiss	-5834
▁tore	-5835
▁unde	-5836
▁wand	-5837
edless	-5838
ential	-5839
ighter	-5840
ipment	-5841
shield	-5842
teenth	-5843
▁1,000	-5844
▁aspir	-5845
▁autom	-5846
▁blown	-5847
▁bunch	-5848
▁coast	-5849
▁crust	-5850
▁decre	-5851
▁downt	-5852
▁error	-5853
▁essay	-5854
▁euros	-5855
▁faint	-5856
▁falls	-5857
▁fancy	-5858
▁force	-5859
▁goals	-5860
▁greek	-5861
▁harsh	-5862
▁ideal	-5863
▁knees	-5864
▁minor	-5865
▁revol	-5866
▁risks	-5867
▁roast	-5868
▁rugby	-5869
▁saxop	-5870
▁scare	-5871
▁solar	-5872
▁solid	-5873
▁spilt	-5874
▁stare	-5875
▁stiff	-5876
▁tasty	-5877
▁teles	-5878
▁title	-5879
▁troub	-5880
▁vague	-5881
▁waist	-5882
▁waved	-5883
▁wrest	-5884
ancakes	-5885
lloween	-5886
plished	-5887
▁abacus	-5888
▁aboard	-5889
▁adding	-5890
▁affect	-5891
▁battle	-5892
▁breaks	-5893
▁bullet	-5894
▁causes	-5895
▁checks	-5896
▁chilly	-5897
▁cooler	-5898
▁cotton	-5899
▁dormit	-5900
▁durian	-5901
▁female	-5902
▁financ	-5903
▁fought	-5904
▁headed	-5905
▁helmet	-5906
▁horror	-5907
▁hotter	-5908
▁injury	-5909
▁knives	-5910
▁motion	-5911
▁nephew	-5912
▁orphan	-5913
▁planet	-5914
▁prince	-5915
▁prover	-5916
▁resume	-5917
▁steady	-5918
▁symbol	-5919
▁teased	-5920
▁tricks	-5921
▁underw	-5922
▁vacant	-5923
▁apology	-5924
▁athlete	-5925
▁bargain	-5926
▁biggest	-5927
▁britain	-5928
▁comfort	-5929
▁current	-5930
▁fiction	-5931
▁figured	-5932
▁flights	-5933
▁grammat	-5934
▁happily	-5935
▁kittens	-5936
▁mileage	-5937
▁musical	-5938
▁offered	-5939
▁opposed	-5940
▁oysters	-5941
▁pacific	-5942
▁reality	-5943
▁replace	-5944
▁require	-5945
▁schools	-5946
▁shallow	-5947
▁shampoo	-5948
▁slapped	-5949
▁spinach	-5950
▁sunburn	-5951
▁sunrise	-5952
▁survive	-5953
▁thanked	-5954
▁trusted	-5955
▁typical	-5956
▁victory	-5957
▁volcano	-5958
▁bachelor	-5959
▁bicycles	-5960
▁boarding	-5961
▁catching	-5962
▁consists	-5963
▁contains	-5964
▁deceived	-5965
▁declined	-5966
▁demanded	-5967
▁detailed	-5968
▁diplomat	-5969
▁discover	-5970
▁downtown	-5971
▁engineer	-5972
▁evidence	-5973
▁expenses	-5974
▁gasoline	-5975
▁happiest	-5976
▁meetings	-5977
▁murderer	-5978
▁novelist	-5979
▁positive	-5980
▁punished	-5981
▁reminded	-5982
▁romantic	-5983
▁scholars	-5984
▁speeding	-5985
▁sunlight	-5986
▁sunshine	-5987
▁supplies	-5988
▁switched	-5989
▁thankful	-5990
▁troubles	-5991
▁welcomed	-5992
personally	-5993
▁announced	-5994
▁butterfly	-5995
▁conceited	-5996
▁confirmed	-5997
▁correctly	-5998
▁delighted	-5999
▁equipment	-6000
▁exchanged	-6001
▁foreigner	-6002
▁gradually	-6003
▁halloween	-6004
▁notebooks	-6005
▁recovered	-6006
▁saxophone	-6007
▁sentences	-6008
▁telescope	-6009
▁atmosphere	-6010
▁background	-6011
▁constantly	-6012
▁frequently	-6013
▁friendship	-6014
▁mosquitoes	-6015
▁pretending	-6016
▁threatened	-6017
▁windshield	-6018
▁competition	-6019
▁description	-6020
▁experiences	-6021
▁accomplished	-6022
▁embarrassing	-6023
▁grandparents	-6024
▁organization	-6025
▁prescription	-6026
▁consideration	-6027
▁grandchildren	-6028
▁misunderstood	-6029
cr	-6030
lk	-6031
100	-6032
aly	-6033
cel	-6034
ift	-6035
ism	-6036
ogs	-6037
oos	-6038
ros	-6039
ser	-6040
sun	-6041
uel	-6042
val	-6043
▁1,	-6044
▁hy	-6045
▁zi	-6046
adle	-6047
affe	-6048
assy	-6049
aven	-6050
bell	-6051
cise	-6052
fall	-6053
fume	-6054
gran	-6055
gues	-6056
help	-6057
imon	-6058
lets	-6059
ller	-6060
show	-6061
sion	-6062
ulse	-6063
wood	-6064
▁adj	-6065
▁dan	-6066
▁eld	-6067
▁ire	-6068
▁jar	-6069
▁oak	-6070
▁oxy	-6071
▁pal	-6072
▁pir	-6073
▁poo	-6074
▁rac	-6075
▁spy	-6076
▁van	-6077
▁wid	-6078
▁yog	-6079
abbed	-6080
andal	-6081
chite	-6082
ckles	-6083
close	-6084
emies	-6085
flies	-6086
icing	-6087
liked	-6088
olite	-6089
osite	-6090
otion	-6091
overy	-6092
plant	-6093
stand	-6094
ticip	-6095
ugged	-6096
unted	-6097
▁asks	-6098
▁asse	-6099
▁bark	-6100
▁bend	-6101
▁bent	-6102
▁blow	-6103
▁bugs	-6104
▁bush	-6105
▁cand	-6106
▁cels	-6107
▁chef	-6108
▁chim	-6109
▁cris	-6110
▁cycl	-6111
▁dele	-6112
▁dial	-6113
▁dren	-6114
▁dull	-6115
▁frag	-6116
▁guns	-6117
▁hint	-6118
▁hood	-6119
▁insp	-6120
▁magn	-6121
▁mall	-6122
▁mass	-6123
▁nick	-6124
▁numb	-6125
▁onto	-6126
▁pine	-6127
▁pome	-6128
▁reun	-6129
▁slam	-6130
▁snea	-6131
▁soph	-6132
▁stir	-6133
▁stut	-6134
▁thor	-6135
▁tsun	-6136
▁unhe	-6137
▁vain	-6138
▁zeal	-6139
inning	-6140
manent	-6141
phones	-6142
ration	-6143
speare	-6144
tation	-6145
ulated	-6146
▁bride	-6147
▁cabin	-6148
▁chalk	-6149
▁civil	-6150
▁cooks	-6151
▁crops	-6152
▁crush	-6153
▁delay	-6154
▁faith	-6155
▁fewer	-6156
▁freed	-6157
▁frogs	-6158
▁fussy	-6159
▁heels	-6160
▁indic	-6161
▁kimon	-6162
▁mango	-6163
▁nasty	-6164
▁opera	-6165
▁pairs	-6166
▁peach	-6167
▁react	-6168
▁rescu	-6169
▁riser	-6170
▁rises	-6171
▁slice	-6172
▁subst	-6173
▁subur	-6174
▁suits	-6175
▁tense	-6176
▁tiger	-6177
▁waves	-6178
▁wings	-6179
certain	-6180
instead	-6181
istence	-6182
judging	-6183
outhing	-6184
smoking	-6185
▁attach	-6186
▁beaten	-6187
▁blamed	-6188
▁blouse	-6189
▁border	-6190
▁burden	-6191
▁carbon	-6192
▁carpen	-6193
▁cradle	-6194
▁dancer	-6195
▁desire	-6196
▁downlo	-6197
▁driven	-6198
▁edible	-6199
▁ending	-6200
▁errors	-6201
▁exists	-6202
▁extend	-6203
▁faults	-6204
▁filthy	-6205
▁floors	-6206
▁forbid	-6207
▁fortun	-6208
▁freeze	-6209
▁giants	-6210
▁golden	-6211
▁grandd	-6212
▁harass	-6213
▁hiring	-6214
▁indian	-6215
▁insect	-6216
▁instin	-6217
▁koalas	-6218
▁luxury	-6219
▁misses	-6220
▁oxygen	-6221
▁passes	-6222
▁phones	-6223
▁punish	-6224
▁purple	-6225
▁quarre	-6226
▁rivers	-6227
▁settle	-6228
▁severe	-6229
▁signed	-6230
▁skirts	-6231
▁sleeps	-6232
▁sorrow	-6233
▁summit	-6234
▁supply	-6235
▁tossed	-6236
▁towels	-6237
▁turtle	-6238
▁undone	-6239
▁unfair	-6240
▁wisdom	-6241
▁yogurt	-6242
▁zipper	-6243
iversary	-6244
tomorrow	-6245
▁anticip	-6246
▁archite	-6247
▁arrives	-6248
▁austria	-6249
▁bullied	-6250
▁cameras	-6251
▁capable	-6252
▁celsius	-6253
▁clapped	-6254
▁confuse	-6255
▁cutting	-6256
▁dealing	-6257
▁deposit	-6258
▁disgust	-6259
▁embassy	-6260
▁enemies	-6261
▁flipped	-6262
▁furious	-6263
▁greatly	-6264
▁handbag	-6265
▁haunted	-6266
▁honesty	-6267
▁ireland	-6268
▁joining	-6269
▁mexican	-6270
▁nations	-6271
▁obliged	-6272
▁olympic	-6273
▁painter	-6274
▁parties	-6275
▁perfume	-6276
▁proverb	-6277
▁regrets	-6278
▁reports	-6279
▁scandal	-6280
▁setting	-6281
▁shaking	-6282
▁shuttle	-6283
▁sleeves	-6284
▁stabbed	-6285
▁staring	-6286
▁tickled	-6287
▁tuesday	-6288
▁warning	-6289
▁zealand	-6290
▁addicted	-6291
▁blooming	-6292
▁citizens	-6293
▁competed	-6294
▁customer	-6295
▁disaster	-6296
▁disliked	-6297
▁doorbell	-6298
▁dreaming	-6299
▁drenched	-6300
▁entirely	-6301
▁families	-6302
▁freckles	-6303
▁impolite	-6304
▁majoring	-6305
▁opposite	-6306
▁overlook	-6307
▁pancakes	-6308
▁pomegran	-6309
▁princess	-6310
▁recorder	-6311
▁recovery	-6312
▁register	-6313
▁resident	-6314
▁screamed	-6315
▁security	-6316
▁somewhat	-6317
▁subjects	-6318
▁symptoms	-6319
▁talented	-6320
▁thorough	-6321
▁associate	-6322
▁attracted	-6323
▁christian	-6324
▁complains	-6325
▁detergent	-6326
▁drinkable	-6327
▁existence	-6328
▁forgetful	-6329
▁imaginary	-6330
▁kilometer	-6331
▁mentioned	-6332
▁otherwise	-6333
▁permanent	-6334
▁photograp	-6335
▁poisoning	-6336
▁poisonous	-6337
▁pollution	-6338
▁scheduled	-6339
▁screaming	-6340
▁snowboard	-6341
▁talkative	-6342
▁teenagers	-6343
▁vegetable	-6344
▁assignment	-6345
▁automobile	-6346
▁colleagues	-6347
▁englishman	-6348
▁flashlight	-6349
▁footprints	-6350
▁increasing	-6351
▁permitting	-6352
▁profession	-6353
▁tablecloth	-6354
▁technology	-6355
▁temptation	-6356
▁unemployed	-6357
▁anniversary	-6358
▁destination	-6359
▁established	-6360
▁impressions	-6361
▁performance	-6362
▁shakespeare	-6363
▁carelessness	-6364
▁disappointing	-6365
▁grammatically	-6366
20	-6367
3,	-6368
ev	-6369
ik	-6370
rk	-6371
▁x	-6372
10.	-6373
auc	-6374
avy	-6375
bal	-6376
had	-6377
ham	-6378
hma	-6379
htr	-6380
isk	-6381
ley	-6382
lin	-6383
lit	-6384
lph	-6385
ode	-6386
off	-6387
ues	-6388
ulf	-6389
was	-6390
xim	-6391
yen	-6392
▁cu	-6393
▁ut	-6394
alid	-6395
aned	-6396
anji	-6397
cher	-6398
conf	-6399
dded	-6400
ders	-6401
gree	-6402
hern	-6403
lter	-6404
mare	-6405
mind	-6406
rict	-6407
seek	-6408
sych	-6409
ubby	-6410
utes	-6411
▁awk	-6412
▁bon	-6413
▁emo	-6414
▁hic	-6415
▁inf	-6416
▁mop	-6417
▁sty	-6418
▁ups	-6419
apted	-6420
being	-6421
cakes	-6422
cript	-6423
daddy	-6424
eling	-6425
endar	-6426
htray	-6427
ictly	-6428
ients	-6429
iforn	-6430
izing	-6431
storm	-6432
these	-6433
using	-6434
wards	-6435
works	-6436
▁ange	-6437
▁ants	-6438
▁appe	-6439
▁barn	-6440
▁coal	-6441
▁diss	-6442
▁dome	-6443
▁dyed	-6444
▁hike	-6445
▁leaf	-6446
▁male	-6447
▁merc	-6448
▁mult	-6449
▁path	-6450
▁pays	-6451
▁poke	-6452
▁pole	-6453
▁pupp	-6454
▁sail	-6455
▁saus	-6456
▁seme	-6457
▁shin	-6458
▁slip	-6459
▁tape	-6460
▁tear	-6461
▁toes	-6462
▁tone	-6463
▁vers	-6464
anyway	-6465
french	-6466
lights	-6467
little	-6468
minded	-6469
ometer	-6470
ounted	-6471
screen	-6472
tember	-6473
unless	-6474
▁accum	-6475
▁adapt	-6476
▁basic	-6477
▁benef	-6478
▁bites	-6479
▁bones	-6480
▁booth	-6481
▁cares	-6482
▁chuck	-6483
▁cliff	-6484
▁comic	-6485
▁condu	-6486
▁cruel	-6487
▁dates	-6488
▁decor	-6489
▁dolph	-6490
▁downs	-6491
▁eaves	-6492
▁elder	-6493
▁extin	-6494
▁fianc	-6495
▁flies	-6496
▁flows	-6497
▁frank	-6498
▁fully	-6499
▁gorge	-6500
▁hedge	-6501
▁hoped	-6502
▁inher	-6503
▁items	-6504
▁kanji	-6505
▁leads	-6506
▁legal	-6507
▁manus	-6508
▁miser	-6509
▁niece	-6510
▁olive	-6511
▁overe	-6512
▁panda	-6513
▁pills	-6514
▁pinch	-6515
▁plain	-6516
▁porch	-6517
▁prior	-6518
▁psych	-6519
▁regis	-6520
▁rings	-6521
▁roomm	-6522
▁route	-6523
▁salty	-6524
▁scarf	-6525
▁shell	-6526
▁shown	-6527
▁shows	-6528
▁staff	-6529
▁sting	-6530
▁stret	-6531
▁stung	-6532
▁swear	-6533
▁sword	-6534
▁swore	-6535
▁tools	-6536
▁tours	-6537
▁tries	-6538
▁wakes	-6539
berries	-6540
ifornia	-6541
inating	-6542
mentary	-6543
roaches	-6544
▁aching	-6545
▁agency	-6546
▁altern	-6547
▁asthma	-6548
▁baking	-6549
▁budget	-6550
▁cattle	-6551
▁chased	-6552
▁chubby	-6553
▁circus	-6554
▁closes	-6555
▁decent	-6556
▁dining	-6557
▁drowsy	-6558
▁eighty	-6559
▁emphas	-6560
▁extent	-6561
▁fields	-6562
▁former	-6563
▁fruits	-6564
▁hoping	-6565
▁hunter	-6566
▁immigr	-6567
▁insist	-6568
▁issues	-6569
▁laughs	-6570
▁leader	-6571
▁lemons	-6572
▁lenses	-6573
▁loving	-6574
▁minisk	-6575
▁muscle	-6576
▁nerves	-6577
▁parcel	-6578
▁priest	-6579
▁proved	-6580
▁resort	-6581
▁russia	-6582
▁sevent	-6583
▁shaved	-6584
▁skills	-6585
▁square	-6586
▁squash	-6587
▁starve	-6588
▁statue	-6589
▁surely	-6590
▁target	-6591
▁tissue	-6592
▁visits	-6593
▁wasted	-6594
strictly	-6595
▁adapted	-6596
▁admirer	-6597
▁approve	-6598
▁ashtray	-6599
▁aspirin	-6600
▁attempt	-6601
▁awkward	-6602
▁chances	-6603
▁chimney	-6604
▁compare	-6605
▁contrib	-6606
▁created	-6607
▁cycling	-6608
▁deleted	-6609
▁devoted	-6610
▁dimples	-6611
▁emerged	-6612
▁examine	-6613
▁expires	-6614
▁freedom	-6615
▁freshly	-6616
▁funeral	-6617
▁giraffe	-6618
▁groaned	-6619
▁handles	-6620
▁imitate	-6621
▁imports	-6622
▁intends	-6623
▁invalid	-6624
▁ironing	-6625
▁letting	-6626
▁painful	-6627
▁passion	-6628
▁peaches	-6629
▁peanuts	-6630
▁pulling	-6631
▁quarrel	-6632
▁railway	-6633
▁rolling	-6634
▁seatbel	-6635
▁shelter	-6636
▁soaking	-6637
▁soldier	-6638
▁species	-6639
▁streets	-6640
▁suburbs	-6641
▁temples	-6642
▁touched	-6643
▁tripped	-6644
▁victims	-6645
▁whiskey	-6646
▁whistle	-6647
▁wrapped	-6648
boyfriend	-6649
restimate	-6650
▁advanced	-6651
▁amounted	-6652
▁arranged	-6653
▁backpack	-6654
▁bankrupt	-6655
▁basement	-6656
▁breathed	-6657
▁brushing	-6658
▁calendar	-6659
▁capacity	-6660
▁constant	-6661
▁contacts	-6662
▁defeated	-6663
▁directly	-6664
▁district	-6665
▁freezing	-6666
▁gorgeous	-6667
▁grandson	-6668
▁imported	-6669
▁magician	-6670
▁millions	-6671
▁objected	-6672
▁obsessed	-6673
▁occupied	-6674
▁overwork	-6675
▁peaceful	-6676
▁pharmacy	-6677
▁politely	-6678
▁railroad	-6679
▁regarded	-6680
▁repeated	-6681
▁requires	-6682
▁secretly	-6683
▁semester	-6684
▁shortage	-6685
▁stopping	-6686
▁troubled	-6687
▁twenties	-6688
▁visitors	-6689
▁weakness	-6690
▁abilities	-6691
▁accompany	-6692
▁according	-6693
▁astronaut	-6694
▁carpenter	-6695
▁conscious	-6696
▁converted	-6697
▁currently	-6698
▁decisions	-6699
▁dormitory	-6700
▁drugstore	-6701
▁economics	-6702
▁effective	-6703
▁employees	-6704
▁essential	-6705
▁fireworks	-6706
▁nightmare	-6707
▁objection	-6708
▁policemen	-6709
▁practiced	-6710
▁predicted	-6711
▁promotion	-6712
▁receiving	-6713
▁september	-6714
▁snowstorm	-6715
▁statement	-6716
▁sunscreen	-6717
▁travelers	-6718
▁universal	-6719
▁california	-6720
▁characters	-6721
▁cheesecake	-6722
▁directions	-6723
▁elementary	-6724
▁encouraged	-6725
▁expression	-6726
▁incredibly	-6727
▁manuscript	-6728
▁registered	-6729
▁separately	-6730
▁watermelon	-6731
▁worthwhile	-6732
▁accumulated	-6733
▁alternative	-6734
▁billionaire	-6735
▁butterflies	-6736
▁cockroaches	-6737
▁convenience	-6738
▁millionaire	-6739
▁photographs	-6740
▁recommended	-6741
▁resignation	-6742
▁scholarship	-6743
▁congratulate	-6744
▁instructions	-6745
▁interrupting	-6746
▁photographer	-6747
▁underestimate	-6748
▁congratulations	-6749
0?	-6750
iw	-6751
ws	-6752
▁'	-6753
30,	-6754
add	-6755
ats	-6756
bes	-6757
dka	-6758
ept	-6759
gir	-6760
ids	-6761
ima	-6762
ita	-6763
rap	-6764
ref	-6765
ste	-6766
uba	-6767
uum	-6768
win	-6769
both	-6770
call	-6771
ckey	-6772
cond	-6773
down	-6774
drop	-6775
eddy	-6776
edic	-6777
enna	-6778
ided	-6779
ique	-6780
kind	-6781
nuts	-6782
quar	-6783
resa	-6784
rial	-6785
ssip	-6786
stic	-6787
stop	-6788
uous	-6789
weed	-6790
▁apt	-6791
▁bru	-6792
▁cas	-6793
▁dug	-6794
▁hir	-6795
▁hyp	-6796
▁ken	-6797
▁led	-6798
▁lim	-6799
▁mig	-6800
▁mug	-6801
▁net	-6802
▁rif	-6803
▁rub	-6804
▁swo	-6805
▁syn	-6806
▁tad	-6807
▁tul	-6808
althy	-6809
apore	-6810
aring	-6811
arten	-6812
aucet	-6813
bbing	-6814
berry	-6815
cence	-6816
early	-6817
grand	-6818
osity	-6819
ships	-6820
steps	-6821
tific	-6822
uming	-6823
venir	-6824
wives	-6825
▁2013	-6826
▁alib	-6827
▁bang	-6828
▁boun	-6829
▁brat	-6830
▁capt	-6831
▁clut	-6832
▁desp	-6833
▁dire	-6834
▁dism	-6835
▁duck	-6836
▁fasc	-6837
▁fate	-6838
▁inex	-6839
▁jack	-6840
▁leap	-6841
▁lobs	-6842
▁navy	-6843
▁paws	-6844
▁pess	-6845
▁plum	-6846
▁plus	-6847
▁rats	-6848
▁redu	-6849
▁reve	-6850
▁scot	-6851
▁sigh	-6852
▁situ	-6853
▁skis	-6854
▁sock	-6855
▁suff	-6856
▁tart	-6857
▁wage	-6858
,000."	-6859
anches	-6860
aneous	-6861
arians	-6862
arinet	-6863
awning	-6864
boiled	-6865
coming	-6866
ffered	-6867
garine	-6868
icians	-6869
ishing	-6870
istics	-6871
iverse	-6872
oughed	-6873
refund	-6874
tained	-6875
utions	-6876
▁activ	-6877
▁bills	-6878
▁blank	-6879
▁bless	-6880
▁blond	-6881
▁bombs	-6882
▁bonus	-6883
▁buddy	-6884
▁catal	-6885
▁cater	-6886
▁chime	-6887
▁clerk	-6888
▁demon	-6889
▁drama	-6890
▁drill	-6891
▁finds	-6892
▁fined	-6893
▁firef	-6894
▁flown	-6895
▁foggy	-6896
▁frost	-6897
▁guilt	-6898
▁ignor	-6899
▁merry	-6900
▁micro	-6901
▁mount	-6902
▁muddy	-6903
▁nerve	-6904
▁overd	-6905
▁panic	-6906
▁pears	-6907
▁penny	-6908
▁pride	-6909
▁quant	-6910
▁recon	-6911
▁reven	-6912
▁rides	-6913
▁scale	-6914
▁schoo	-6915
▁scrub	-6916
▁sheet	-6917
▁spect	-6918
▁steep	-6919
▁sweep	-6920
▁tails	-6921
▁teddy	-6922
▁therm	-6923
▁truly	-6924
▁types	-6925
▁union	-6926
▁vodka	-6927
▁weeds	-6928
astered	-6929
ificial	-6930
imeters	-6931
ography	-6932
olution	-6933
▁addict	-6934
▁adjust	-6935
▁biting	-6936
▁bubble	-6937
▁carved	-6938
▁chopin	-6939
▁collap	-6940
▁debate	-6941
▁degree	-6942
▁differ	-6943
▁diving	-6944
▁emails	-6945
▁encour	-6946
▁errand	-6947
▁farmer	-6948
▁faucet	-6949
▁folder	-6950
▁formal	-6951
▁gamble	-6952
▁gladly	-6953
▁gossip	-6954
▁heaven	-6955
▁hockey	-6956
▁infect	-6957
▁ironed	-6958
▁jewels	-6959
▁kimono	-6960
▁kindly	-6961
▁liquor	-6962
▁listed	-6963
▁loaded	-6964
▁maiden	-6965
▁mammal	-6966
▁messed	-6967
▁mostly	-6968
▁nodded	-6969
▁notify	-6970
▁opener	-6971
▁orders	-6972
▁peanut	-6973
▁proced	-6974
▁ridden	-6975
▁ruined	-6976
▁rumors	-6977
▁scenic	-6978
▁scored	-6979
▁seized	-6980
▁sharks	-6981
▁sighed	-6982
▁sights	-6983
▁simult	-6984
▁slices	-6985
▁smiles	-6986
▁snacks	-6987
▁source	-6988
▁stingy	-6989
▁stinks	-6990
▁stones	-6991
▁teresa	-6992
▁tested	-6993
▁threat	-6994
▁treaty	-6995
▁tulips	-6996
▁vacuum	-6997
▁vienna	-6998
▁waiter	-6999
▁walker	-7000
▁yelled	-7001
ergarten	-7002
mouthing	-7003
wherever	-7004
▁assumed	-7005
▁beaches	-7006
▁biology	-7007
▁blister	-7008
▁bookshe	-7009
▁bowling	-7010
▁browser	-7011
▁brushed	-7012
▁candles	-7013
▁citizen	-7014
▁cleaner	-7015
▁damaged	-7016
▁declare	-7017
▁departs	-7018
▁deserve	-7019
▁dragons	-7020
▁earring	-7021
▁effects	-7022
▁elderly	-7023
▁excused	-7024
▁expects	-7025
▁figures	-7026
▁heating	-7027
▁heights	-7028
▁imposed	-7029
▁jumping	-7030
▁lawyers	-7031
▁learner	-7032
▁lighter	-7033
▁limited	-7034
▁listens	-7035
▁monster	-7036
▁museums	-7037
▁precise	-7038
▁prefect	-7039
▁propose	-7040
▁pudding	-7041
▁reflect	-7042
▁release	-7043
▁relieve	-7044
▁respond	-7045
▁reunion	-7046
▁sailing	-7047
▁sandals	-7048
▁seaweed	-7049
▁secrets	-7050
▁seventy	-7051
▁shortly	-7052
▁singers	-7053
▁sinking	-7054
▁smelled	-7055
▁society	-7056
▁solving	-7057
▁spoiled	-7058
▁starved	-7059
▁sticker	-7060
▁striped	-7061
▁substit	-7062
▁swollen	-7063
▁ticking	-7064
▁tightly	-7065
▁turtles	-7066
▁wagging	-7067
▁worries	-7068
▁adjusted	-7069
▁affected	-7070
▁annoying	-7071
▁betrayed	-7072
▁branches	-7073
▁certific	-7074
▁cheapest	-7075
▁clarinet	-7076
▁colorful	-7077
▁crawling	-7078
▁cupcakes	-7079
▁delivery	-7080
▁designed	-7081
▁domestic	-7082
▁doubtful	-7083
▁download	-7084
▁frequent	-7085
▁generous	-7086
▁grinning	-7087
▁inclined	-7088
▁informed	-7089
▁jacksons	-7090
▁majority	-7091
▁messages	-7092
▁minister	-7093
▁nauseous	-7094
▁nickname	-7095
▁olympics	-7096
▁powerful	-7097
▁programs	-7098
▁relaxing	-7099
▁required	-7100
▁scarcely	-7101
▁slippers	-7102
▁souvenir	-7103
▁suffered	-7104
▁sympathy	-7105
▁terminal	-7106
▁universe	-7107
▁vitamins	-7108
refundable	-7109
▁abolished	-7110
▁agreement	-7111
▁allowance	-7112
▁announcer	-7113
▁authority	-7114
▁beginners	-7115
▁celebrate	-7116
▁continent	-7117
▁curiosity	-7118
▁dependent	-7119
▁described	-7120
▁developed	-7121
▁disappear	-7122
▁eavesdrop	-7123
▁enjoyable	-7124
▁favorable	-7125
▁footsteps	-7126
▁forbidden	-7127
▁fortunate	-7128
▁housework	-7129
▁inherited	-7130
▁margarine	-7131
▁motivated	-7132
▁paintings	-7133
▁presented	-7134
▁reluctant	-7135
▁saturdays	-7136
▁sentenced	-7137
▁singapore	-7138
▁someplace	-7139
▁storeroom	-7140
▁suspected	-7141
▁timetable	-7142
▁unhealthy	-7143
▁volunteer	-7144
▁advertised	-7145
▁approached	-7146
▁artificial	-7147
▁attributed	-7148
▁babysitter	-7149
▁disgusting	-7150
▁industrial	-7151
▁programmer	-7152
▁quarreling	-7153
▁secondhand	-7154
▁thoroughly	-7155
▁throughout	-7156
▁weatherman	-7157
▁appearances	-7158
▁centimeters	-7159
▁chairperson	-7160
▁differences	-7161
▁discouraged	-7162
▁firefighter	-7163
▁meaningless	-7164
▁medications	-7165
▁pessimistic	-7166
▁transferred	-7167
▁vegetarians	-7168
▁watermelons	-7169
▁alphabetical	-7170
▁hospitalized	-7171
▁intelligence	-7172
▁kindergarten	-7173
▁particularly	-7174
▁presentation	-7175
▁communication	-7176
▁granddaughter	-7177
▁unfortunately	-7178
▁disappointment	-7179
.,	-7180
.?	-7181
12	-7182
ee	-7183
hj	-7184
uf	-7185
aki	-7186
aps	-7187
coa	-7188
ene	-7189
fit	-7190
fts	-7191
gee	-7192
hop	-7193
iev	-7194
imi	-7195
mid	-7196
nat	-7197
new	-7198
nia	-7199
ody	-7200
ops	-7201
oya	-7202
pox	-7203
reg	-7204
rot	-7205
spe	-7206
sts	-7207
tre	-7208
ura	-7209
wha	-7210
zes	-7211
▁22	-7212
▁ep	-7213
▁ip	-7214
▁mr	-7215
agne	-7216
alay	-7217
amis	-7218
anna	-7219
aran	-7220
aren	-7221
aser	-7222
athe	-7223
aurs	-7224
chup	-7225
comp	-7226
ctic	-7227
date	-7228
days	-7229
etho	-7230
fire	-7231
foot	-7232
hour	-7233
ials	-7234
imum	-7235
inse	-7236
isha	-7237
itis	-7238
iwan	-7239
lert	-7240
luck	-7241
move	-7242
omin	-7243
onna	-7244
onse	-7245
oops	-7246
ords	-7247
pill	-7248
pple	-7249
rily	-7250
ruit	-7251
star	-7252
tail	-7253
tier	-7254
ummy	-7255
vant	-7256
were	-7257
zart	-7258
▁110	-7259
▁amp	-7260
▁ant	-7261
▁ber	-7262
▁clo	-7263
▁fer	-7264
▁foc	-7265
▁loo	-7266
▁mil	-7267
▁mow	-7268
▁ped	-7269
▁san	-7270
▁ske	-7271
▁tex	-7272
▁unb	-7273
▁vom	-7274
anies	-7275
athon	-7276
becue	-7277
bring	-7278
brush	-7279
dream	-7280
dress	-7281
earth	-7282
eches	-7283
eself	-7284
ffiti	-7285
guard	-7286
hjong	-7287
holic	-7288
honey	-7289
istol	-7290
ithme	-7291
itted	-7292
laced	-7293
ommod	-7294
oning	-7295
pered	-7296
piece	-7297
proof	-7298
raine	-7299
skate	-7300
small	-7301
start	-7302
style	-7303
three	-7304
tless	-7305
unken	-7306
verty	-7307
xture	-7308
▁acts	-7309
▁aids	-7310
▁beds	-7311
▁biwa	-7312
▁bowl	-7313
▁budd	-7314
▁buzz	-7315
▁caps	-7316
▁coke	-7317
▁cola	-7318
▁core	-7319
▁crut	-7320
▁cucu	-7321
▁cuts	-7322
▁deny	-7323
▁dict	-7324
▁hicc	-7325
▁hits	-7326
▁hunt	-7327
▁inqu	-7328
▁lamp	-7329
▁lets	-7330
▁mart	-7331
▁muff	-7332
▁musl	-7333
▁ninj	-7334
▁nort	-7335
▁obsc	-7336
▁owes	-7337
▁pigs	-7338
▁pure	-7339
▁refu	-7340
▁sash	-7341
▁scam	-7342
▁seas	-7343
▁sees	-7344
▁sets	-7345
▁tank	-7346
▁thai	-7347
▁trop	-7348
▁unre	-7349
▁verb	-7350
▁warn	-7351
▁wept	-7352
▁wink	-7353
acting	-7354
actory	-7355
alyzed	-7356
believ	-7357
brated	-7358
elaces	-7359
ession	-7360
geable	-7361
ighten	-7362
ipping	-7363
istent	-7364
itials	-7365
mother	-7366
native	-7367
ogical	-7368
osaurs	-7369
perate	-7370
rosene	-7371
seeing	-7372
tering	-7373
urning	-7374
▁agent	-7375
▁alert	-7376
▁alibi	-7377
▁angle	-7378
▁aquar	-7379
▁arrow	-7380
▁banks	-7381
▁block	-7382
▁boats	-7383
▁boils	-7384
▁cases	-7385
▁cents	-7386
▁choos	-7387
▁claim	-7388
▁coats	-7389
▁cocoa	-7390
▁comed	-7391
▁cycle	-7392
▁daddy	-7393
▁dealt	-7394
▁dedic	-7395
▁democ	-7396
▁dolls	-7397
▁dozed	-7398
▁dumbf	-7399
▁erase	-7400
▁flock	-7401
▁flute	-7402
▁frown	-7403
▁frust	-7404
▁gases	-7405
▁hasty	-7406
▁holes	-7407
▁holly	-7408
▁humil	-7409
▁imply	-7410
▁koala	-7411
▁korea	-7412
▁latin	-7413
▁mirac	-7414
▁moral	-7415
▁numer	-7416
▁owned	-7417
▁pearl	-7418
▁persp	-7419
▁poker	-7420
▁potty	-7421
▁prove	-7422
▁pulse	-7423
▁races	-7424
▁rifle	-7425
▁rinse	-7426
▁risky	-7427
▁roman	-7428
▁scuba	-7429
▁shots	-7430
▁sizes	-7431
▁sligh	-7432
▁sneak	-7433
▁tarts	-7434
▁taxis	-7435
▁teens	-7436
▁tenth	-7437
▁theme	-7438
▁timid	-7439
▁titan	-7440
▁twink	-7441
▁unrel	-7442
▁upper	-7443
▁value	-7444
▁vegan	-7445
▁wanna	-7446
▁wheat	-7447
dresser	-7448
ethoven	-7449
hearted	-7450
iwanese	-7451
luckily	-7452
pensive	-7453
strange	-7454
venture	-7455
weather	-7456
▁20,000	-7457
▁abated	-7458
▁abrupt	-7459
▁agrees	-7460
▁amused	-7461
▁argued	-7462
▁begged	-7463
▁biased	-7464
▁braces	-7465
▁career	-7466
▁chewed	-7467
▁chimes	-7468
▁choked	-7469
▁comics	-7470
▁counts	-7471
▁crafts	-7472
▁crisis	-7473
▁danced	-7474
▁dashed	-7475
▁desert	-7476
▁dialed	-7477
▁donuts	-7478
▁fatter	-7479
▁folded	-7480
▁fooled	-7481
▁fourth	-7482
▁gently	-7483
▁global	-7484
▁greece	-7485
▁growth	-7486
▁guaran	-7487
▁hassle	-7488
▁humble	-7489
▁insane	-7490
▁itches	-7491
▁liking	-7492
▁lilies	-7493
▁limits	-7494
▁mature	-7495
▁mechan	-7496
▁melody	-7497
▁merely	-7498
▁mozart	-7499
▁nagoya	-7500
▁neatly	-7501
▁outfit	-7502
▁pandas	-7503
▁patron	-7504
▁payday	-7505
▁persim	-7506
▁pigeon	-7507
▁pistol	-7508
▁placed	-7509
▁profit	-7510
▁recipe	-7511
▁refund	-7512
▁robber	-7513
▁shared	-7514
▁signal	-7515
▁skinny	-7516
▁tender	-7517
▁terror	-7518
▁thorns	-7519
▁thread	-7520
▁toothp	-7521
▁tracks	-7522
▁treats	-7523
▁vision	-7524
▁voices	-7525
▁wester	-7526
ithmetic	-7527
starting	-7528
whatever	-7529
ximately	-7530
▁abandon	-7531
▁amounts	-7532
▁angrily	-7533
▁apprent	-7534
▁balance	-7535
▁becomes	-7536
▁blushed	-7537
▁cabbage	-7538
▁causing	-7539
▁challen	-7540
▁charger	-7541
▁closest	-7542
▁coincid	-7543
▁contemp	-7544
▁coughed	-7545
▁counted	-7546
▁dieting	-7547
▁digging	-7548
▁disagre	-7549
▁donated	-7550
▁drawers	-7551
▁drivers	-7552
▁drunken	-7553
▁eastern	-7554
▁edition	-7555
▁feather	-7556
▁flooded	-7557
▁follows	-7558
▁greener	-7559
▁guessed	-7560
▁harmful	-7561
▁hatched	-7562
▁heading	-7563
▁himalay	-7564
▁hurting	-7565
▁influen	-7566
▁ketchup	-7567
▁leaking	-7568
▁mahjong	-7569
▁mammals	-7570
▁measure	-7571
▁minimum	-7572
▁mission	-7573
▁mixture	-7574
▁muscles	-7575
▁oneself	-7576
▁origami	-7577
▁outcome	-7578
▁passage	-7579
▁passing	-7580
▁poverty	-7581
▁praised	-7582
▁primary	-7583
▁process	-7584
▁pumpkin	-7585
▁puzzled	-7586
▁records	-7587
▁reduced	-7588
▁replied	-7589
▁rescued	-7590
▁sashimi	-7591
▁savings	-7592
▁seasons	-7593
▁showers	-7594
▁smashed	-7595
▁snoring	-7596
▁sources	-7597
▁surfing	-7598
▁undergo	-7599
▁violent	-7600
▁yawning	-7601
confident	-7602
▁accommod	-7603
▁articles	-7604
▁attached	-7605
▁avoiding	-7606
▁barbecue	-7607
▁barefoot	-7608
▁benefits	-7609
▁bookmark	-7610
▁confined	-7611
▁coughing	-7612
▁creature	-7613
▁crutches	-7614
▁darkness	-7615
▁daydream	-7616
▁deserves	-7617
▁designer	-7618
▁director	-7619
▁disguise	-7620
▁dripping	-7621
▁drowning	-7622
▁earrings	-7623
▁economic	-7624
▁eggplant	-7625
▁employed	-7626
▁facebook	-7627
▁floating	-7628
▁function	-7629
▁graffiti	-7630
▁handmade	-7631
▁hangover	-7632
▁identify	-7633
▁ignoring	-7634
▁illusion	-7635
▁included	-7636
▁industry	-7637
▁initials	-7638
▁kerosene	-7639
▁lipstick	-7640
▁machines	-7641
▁maintain	-7642
▁marathon	-7643
▁matching	-7644
▁migraine	-7645
▁mornings	-7646
▁negative	-7647
▁northern	-7648
▁overcast	-7649
▁overcome	-7650
▁presents	-7651
▁prettier	-7652
▁quitting	-7653
▁raincoat	-7654
▁replaced	-7655
▁resigned	-7656
▁response	-7657
▁roommate	-7658
▁seatbelt	-7659
▁seedless	-7660
▁separate	-7661
▁situated	-7662
▁sneezing	-7663
▁speeches	-7664
▁spinning	-7665
▁terrific	-7666
▁thirties	-7667
▁triplets	-7668
▁tropical	-7669
▁tsunamis	-7670
▁unbeliev	-7671
▁waitress	-7672
▁wandered	-7673
▁adventure	-7674
▁advertise	-7675
▁architect	-7676
▁assembled	-7677
▁believing	-7678
▁blueberry	-7679
▁bodyguard	-7680
▁bookshelf	-7681
▁caterpill	-7682
▁companies	-7683
▁competent	-7684
▁consulted	-7685
▁desperate	-7686
▁dinosaurs	-7687
▁disguised	-7688
▁disturbed	-7689
▁efficient	-7690
▁financial	-7691
▁finishing	-7692
▁guitarist	-7693
▁hollywood	-7694
▁identical	-7695
▁improving	-7696
▁innocence	-7697
▁installed	-7698
▁instincts	-7699
▁invention	-7700
▁overnight	-7701
▁paralyzed	-7702
▁prisoners	-7703
▁purchased	-7704
▁regretted	-7705
▁relatives	-7706
▁remembers	-7707
▁restrooms	-7708
▁returning	-7709
▁sensation	-7710
▁shoelaces	-7711
▁shoveling	-7712
▁slightest	-7713
▁specialty	-7714
▁struggled	-7715
▁taiwanese	-7716
▁textbooks	-7717
▁transport	-7718
▁twinkling	-7719
▁uncertain	-7720
▁valuables	-7721
▁villagers	-7722
▁whispered	-7723
▁arithmetic	-7724
▁beforehand	-7725
▁celebrated	-7726
▁collection	-7727
▁disturbing	-7728
▁explaining	-7729
▁expressing	-7730
▁immigrants	-7731
▁journalist	-7732
▁management	-7733
▁occupation	-7734
▁overworked	-7735
▁personally	-7736
▁punishment	-7737
▁retirement	-7738
▁toothbrush	-7739
▁weaknesses	-7740
▁arrangement	-7741
▁differently	-7742
▁dumbfounded	-7743
▁hairdresser	-7744
▁inexpensive	-7745
▁participate	-7746
▁politicians	-7747
▁pomegranate	-7748
▁reluctantly	-7749
▁thermometer	-7750
▁translating	-7751
▁conditioning	-7752
▁continuously	-7753
▁dictionaries	-7754
▁fingerprints	-7755
▁reservations	-7756
▁satisfactory	-7757
▁snowboarding	-7758
▁approximately	-7759
▁consciousness	-7760
▁overconfident	-7761
▁relationships	-7762
-1	-7763
10	-7764
bi	-7765
bu	-7766
da	-7767
si	-7768
yr	-7769
▁0	-7770
2."	-7771
300	-7772
ana	-7773
ano	-7774
aud	-7775
awa	-7776
aws	-7777
ban	-7778
bre	-7779
dro	-7780
ebr	-7781
erk	-7782
esp	-7783
fif	-7784
har	-7785
hor	-7786
hyd	-7787
jis	-7788
juk	-7789
kno	-7790
meg	-7791
omy	-7792
osh	-7793
rom	-7794
sex	-7795
uki	-7796
urs	-7797
vey	-7798
yal	-7799
▁1.	-7800
▁na	-7801
agle	-7802
alty	-7803
amph	-7804
asts	-7805
bern	-7806
bike	-7807
ccol	-7808
clip	-7809
ects	-7810
feat	-7811
firm	-7812
gred	-7813
heit	-7814
hogs	-7815
hren	-7816
icop	-7817
iens	-7818
iffy	-7819
irus	-7820
itor	-7821
juku	-7822
keys	-7823
knob	-7824
mans	-7825
moon	-7826
nail	-7827
oded	-7828
onia	-7829
only	-7830
quat	-7831
ques	-7832
rait	-7833
shot	-7834
tion	-7835
tuce	-7836
udge	-7837
walk	-7838
▁ain	-7839
▁bac	-7840
▁bes	-7841
▁bum	-7842
▁cav	-7843
▁cds	-7844
▁cub	-7845
▁der	-7846
▁dye	-7847
▁fac	-7848
▁glu	-7849
▁hut	-7850
▁jac	-7851
▁jul	-7852
▁kab	-7853
▁kit	-7854
▁kum	-7855
▁lac	-7856
▁lag	-7857
▁mal	-7858
▁nod	-7859
▁pod	-7860
▁pox	-7861
▁sac	-7862
▁sin	-7863
▁sla	-7864
▁soy	-7865
▁tan	-7866
▁unp	-7867
▁voy	-7868
▁wre	-7869
▁yol	-7870
alley	-7871
amboo	-7872
ateur	-7873
azing	-7874
bbers	-7875
ccoli	-7876
ebras	-7877
ences	-7878
ender	-7879
endid	-7880
ffees	-7881
fifty	-7882
icket	-7883
inker	-7884
ishes	-7885
issed	-7886
itary	-7887
keted	-7888
lyard	-7889
mered	-7890
omnia	-7891
orary	-7892
orksc	-7893
ormal	-7894
oshed	-7895
riate	-7896
river	-7897
scope	-7898
sleep	-7899
teady	-7900
times	-7901
uding	-7902
ufact	-7903
umbus	-7904
until	-7905
uries	-7906
utton	-7907
verse	-7908
water	-7909
▁ador	-7910
▁appl	-7911
▁arab	-7912
▁bats	-7913
▁bord	-7914
▁brew	-7915
▁bund	-7916
▁buys	-7917
▁cozy	-7918
▁cree	-7919
▁disg	-7920
▁drum	-7921
▁figs	-7922
▁fled	-7923
▁font	-7924
▁fuel	-7925
▁fulf	-7926
▁gall	-7927
▁grat	-7928
▁grav	-7929
▁howl	-7930
▁ipad	-7931
▁knob	-7932
▁lane	-7933
▁laun	-7934
▁limp	-7935
▁loaf	-7936
▁mama	-7937
▁mand	-7938
▁maps	-7939
▁melt	-7940
▁nove	-7941
▁obst	-7942
▁peak	-7943
▁peas	-7944
▁pitc	-7945
▁quiz	-7946
▁rear	-7947
▁rung	-7948
▁sack	-7949
▁scat	-7950
▁sche	-7951
▁seek	-7952
▁skyd	-7953
▁slid	-7954
▁slim	-7955
▁smog	-7956
▁soda	-7957
▁	-7958
e	-7959
t	-7960
o	-7961
a	-7962
i	-7963
s	-7964
n	-7965
h	-7966
r	-7967
l	-7968
d	-7969
.	-7970
m	-7971
y	-7972
u	-7973
w	-7974
c	-7975
g	-7976
f	-7977
p	-7978
b	-7979
k	-7980
'	-7981
v	-7982
?	-7983
"	-7984
,	-7985
j	-7986
x	-7987
q	-7988
0	-7989
z	-7990
-	-7991
!	-7992
1	-7993
3	-7994
2	-7995
